alignas(8) const unsigned char PROGMEM model_gen[] = { 
 0x1c,0x0,0x0,0x0,0x54,0x46,0x4c,0x33,0x14,0x0,0x20,0x0,0x1c,0x0,0x18,0x0,0x14,0x0,0x10,0x0,0xc,0x0,0x0,0x0,0x8,0x0,0x4,0x0,0x14,0x0,0x0,0x0,0x1c,0x0,0x0,0x0,0x90,0x0,0x0,0x0,0xe8,0x0,0x0,0x0,0xc,0xd,0x0,0x0,0x1c,0xd,0x0,0x0,0x20,0x23,0x0,0x0,0x3,0x0,0x0,0x0,0x1,0x0,0x0,0x0,0x10,0x0,0x0,0x0,0x0,0x0,0xa,0x0,0x10,0x0,0xc,0x0,0x8,0x0,0x4,0x0,0xa,0x0,0x0,0x0,0xc,0x0,0x0,0x0,0x1c,0x0,0x0,0x0,0x3c,0x0,0x0,0x0,0xf,0x0,0x0,0x0,0x73,0x65,0x72,0x76,0x69,0x6e,0x67,0x5f,0x64,0x65,0x66,0x61,0x75,0x6c,0x74,0x0,0x1,0x0,0x0,0x0,0x4,0x0,0x0,0x0,0x98,0xff,0xff,0xff,0x15,0x0,0x0,0x0,0x4,0x0,0x0,0x0,0x9,0x0,0x0,0x0,0x73,0x6f,0x66,0x74,0x6d,0x61,0x78,0x5f,0x34,0x0,0x0,0x0,0x1,0x0,0x0,0x0,0x4,0x0,0x0,0x0,0xda,0xf2,0xff,0xff,0x4,0x0,0x0,0x0,0x7,0x0,0x0,0x0,0x69,0x6e,0x70,0x75,0x74,0x5f,0x35,0x0,0x2,0x0,0x0,0x0,0x34,0x0,0x0,0x0,0x4,0x0,0x0,0x0,0xdc,0xff,0xff,0xff,0x18,0x0,0x0,0x0,0x4,0x0,0x0,0x0,0x13,0x0,0x0,0x0,0x43,0x4f,0x4e,0x56,0x45,0x52,0x53,0x49,0x4f,0x4e,0x5f,0x4d,0x45,0x54,0x41,0x44,0x41,0x54,0x41,0x0,0x8,0x0,0xc,0x0,0x8,0x0,0x4,0x0,0x8,0x0,0x0,0x0,0x17,0x0,0x0,0x0,0x4,0x0,0x0,0x0,0x13,0x0,0x0,0x0,0x6d,0x69,0x6e,0x5f,0x72,0x75,0x6e,0x74,0x69,0x6d,0x65,0x5f,0x76,0x65,0x72,0x73,0x69,0x6f,0x6e,0x0,0x19,0x0,0x0,0x0,0x20,0xc,0x0,0x0,0x18,0xc,0x0,0x0,0x0,0xc,0x0,0x0,0xc8,0xb,0x0,0x0,0x28,0xa,0x0,0x0,0x78,0x9,0x0,0x0,0xa8,0x5,0x0,0x0,0xd8,0x1,0x0,0x0,0xa8,0x1,0x0,0x0,0xa0,0x1,0x0,0x0,0x50,0x1,0x0,0x0,0x10,0x1,0x0,0x0,0xf0,0x0,0x0,0x0,0xe8,0x0,0x0,0x0,0xcc,0x0,0x0,0x0,0xc4,0x0,0x0,0x0,0xbc,0x0,0x0,0x0,0xb4,0x0,0x0,0x0,0xac,0x0,0x0,0x0,0xa4,0x0,0x0,0x0,0x9c,0x0,0x0,0x0,0x94,0x0,0x0,0x0,0x8c,0x0,0x0,0x0,0x6c,0x0,0x0,0x0,0x4,0x0,0x0,0x0,0xb2,0xf3,0xff,0xff,0x4,0x0,0x0,0x0,0x58,0x0,0x0,0x0,0xc,0x0,0x0,0x0,0x8,0x0,0xe,0x0,0x8,0x0,0x4,0x0,0x8,0x0,0x0,0x0,0x10,0x0,0x0,0x0,0x28,0x0,0x0,0x0,0x0,0x0,0x6,0x0,0x8,0x0,0x4,0x0,0x6,0x0,0x0,0x0,0x4,0x0,0x0,0x0,0x1,0x0,0x0,0x0,0xeb,0x3,0x0,0x0,0x0,0x0,0xa,0x0,0x10,0x0,0xc,0x0,0x8,0x0,0x4,0x0,0xa,0x0,0x0,0x0,0x2,0x0,0x0,0x0,0x2,0x0,0x0,0x0,0x4,0x0,0x0,0x0,0x6,0x0,0x0,0x0,0x32,0x2e,0x31,0x32,0x2e,0x30,0x0,0x0,0x16,0xf4,0xff,0xff,0x4,0x0,0x0,0x0,0x10,0x0,0x0,0x0,0x31,0x2e,0x31,0x34,0x2e,0x30,0x0,0x0,0x0,0x0,0x0,0x0,0x0,0x0,0x0,0x0,0xa0,0xdf,0xff,0xff,0xa4,0xdf,0xff,0xff,0xa8,0xdf,0xff,0xff,0xac,0xdf,0xff,0xff,0xb0,0xdf,0xff,0xff,0xb4,0xdf,0xff,0xff,0xb8,0xdf,0xff,0xff,0xbc,0xdf,0xff,0xff,0x52,0xf4,0xff,0xff,0x4,0x0,0x0,0x0,0xc,0x0,0x0,0x0,0x7f,0xc4,0x29,0x81,0xa5,0x96,0xfe,0x7f,0x88,0x7f,0xb7,0x83,0xd8,0xdf,0xff,0xff,0x6e,0xf4,0xff,0xff,0x4,0x0,0x0,0x0,0x10,0x0,0x0,0x0,0x0,0x0,0x0,0x0,0x0,0x0,0x0,0x0,0x0,0x0,0x0,0x0,0x0,0x0,0x0,0x0,0x8a,0xf4,0xff,0xff,0x4,0x0,0x0,0x0,0x30,0x0,0x0,0x0,0x0,0xf5,0xab,0xf5,0x31,0xf9,0xae,0xcb,0x32,0x81,0x40,0xf4,0x25,0x45,0x43,0x83,0x6a,0xc3,0x9e,0x81,0x38,0x4a,0x3b,0x34,0x8d,0x75,0x8c,0xad,0x67,0xca,0x8e,0xa0,0x30,0x75,0x7f,0x72,0x7b,0x72,0x56,0x9,0xf3,0xff,0x69,0x7f,0x58,0xa4,0xb0,0x6a,0xc6,0xf4,0xff,0xff,0x4,0x0,0x0,0x0,0x40,0x0,0x0,0x0,0x29,0x56,0x28,0x85,0x83,0x8a,0x70,0x7f,0x13,0xc5,0xd8,0xf,0xd6,0x77,0x7f,0x4a,0x17,0x8f,0x7a,0xc4,0x25,0xe1,0x96,0x81,0x78,0x1c,0x3c,0x1a,0x32,0xb2,0xcb,0x81,0xa6,0x81,0xba,0x3e,0x72,0xbe,0x4c,0xfc,0x98,0x7f,0xae,0xb,0xc6,0xdb,0x70,0x33,0x3a,0xfc,0xec,0x81,0x8c,0xdd,0x3d,0x88,0xaa,0x6c,0xd6,0xd3,0x81,0x51,0xfb,0x5a,0x80,0xe0,0xff,0xff,0x16,0xf5,0xff,0xff,0x4,0x0,0x0,0x0,0x20,0x0,0x0,0x0,0x0,0x0,0x0,0x0,0x0,0x0,0x0,0x0,0x0,0x0,0x0,0x0,0x0,0x0,0x0,0x0,0x0,0x0,0x0,0x0,0x0,0x0,0x0,0x0,0x0,0x0,0x0,0x0,0x0,0x0,0x0,0x0,0x42,0xf5,0xff,0xff,0x4,0x0,0x0,0x0,0xc0,0x3,0x0,0x0,0x89,0xb9,0x56,0xc4,0x3d,0xe0,0x47,0x6d,0xda,0xe,0x8d,0xb1,0xf2,0xd1,0xfb,0xcb,0x5,0x3f,0x40,0x50,0xa3,0xe,0x7,0xbb,0x0,0x87,0xc0,0x27,0x7c,0x56,0x7c,0xf6,0x2b,0xa4,0x91,0xb4,0x6a,0x43,0x98,0x8b,0x1d,0x35,0xd2,0xb7,0x12,0xb5,0x81,0xf0,0xfe,0x67,0xcc,0xfe,0xd0,0xe9,0xa9,0xfc,0xde,0x53,0x0,0xf,0xf8,0xf7,0xff,0x4e,0xf8,0x2f,0x71,0xcc,0xeb,0x68,0x5f,0xc8,0x99,0x27,0x57,0x16,0x5c,0x1e,0x5e,0x28,0x2,0x7c,0x6c,0x9c,0x8c,0xbf,0x23,0x63,0xc8,0x65,0x5d,0x48,0xb4,0x1c,0x86,0xd5,0xea,0x85,0x8e,0x81,0xf5,0xd7,0xb6,0xfe,0x46,0x4d,0xe0,0x9c,0x78,0x7,0xb5,0xaa,0x14,0x1e,0xb4,0xe6,0x29,0x3d,0xc6,0xae,0x90,0x39,0x45,0x60,0xc,0xc3,0xe7,0x60,0x7e,0x2b,0xa0,0x81,0x72,0xc0,0x1b,0xd9,0x91,0x3d,0x23,0x3f,0xf7,0x69,0x67,0x3c,0xbc,0x5c,0x41,0xc7,0xec,0xe3,0x75,0x24,0x8,0x28,0x54,0xb7,0x4c,0x32,0x5d,0xc6,0x64,0xe,0x0,0xd6,0xeb,0x76,0x36,0x53,0x95,0x4,0x83,0xfe,0x95,0xe4,0x55,0xe9,0x8b,0xcd,0x84,0x95,0xef,0x4e,0xe0,0xb2,0xd,0xc0,0xee,0x9,0xb8,0xf8,0xf3,0xd5,0xb2,0xf,0x11,0xfc,0x2c,0x21,0x8b,0x44,0x7a,0x7d,0x2e,0xc0,0xf6,0x94,0xc5,0xd7,0x8e,0xaf,0xbb,0x36,0xaa,0x48,0x58,0x50,0x1a,0xa0,0x3d,0xf3,0x77,0xa9,0x97,0xd3,0xad,0x39,0xdd,0xd2,0x29,0xfd,0xf2,0xf7,0xe7,0x55,0x6e,0x16,0x34,0x91,0xb7,0xc3,0x2a,0x42,0xb9,0x52,0xeb,0x78,0xa7,0xce,0x31,0x71,0xc7,0x4,0x62,0x31,0x28,0x49,0xb3,0xfa,0xc3,0xc9,0x62,0xd3,0xd9,0x17,0x76,0x38,0xf9,0x3e,0x94,0xd1,0x46,0xe9,0xc8,0xbb,0x7a,0x90,0xdd,0x44,0xca,0xbd,0xf3,0x9c,0x8,0x73,0x2a,0xb6,0x20,0xda,0x66,0x40,0x28,0x71,0x76,0x3e,0xf0,0x31,0x71,0x25,0xdd,0x7f,0x42,0x6c,0xc3,0x1a,0xcf,0xf,0xc2,0x10,0x6e,0xd0,0x1a,0x7d,0x36,0x7d,0x8c,0xc9,0x1f,0xb2,0xb3,0xbe,0xf9,0xe6,0x8,0xa8,0xcd,0x3c,0xcf,0x7a,0x1d,0x1b,0xb2,0x5c,0xa1,0xe9,0x5e,0x20,0x29,0xde,0xc8,0xde,0x99,0xb7,0x7,0x62,0x5,0xf0,0x2e,0xf5,0xb5,0x37,0x43,0x90,0xab,0x39,0x9,0x27,0xac,0xb0,0x96,0xe2,0xe7,0xeb,0xb5,0xf5,0x1f,0xd9,0x49,0xe6,0xf1,0x7,0x78,0xb9,0xb,0x8b,0x48,0x6f,0x1c,0x7e,0xf9,0x1b,0x51,0x9d,0xa8,0xec,0x36,0x4f,0x21,0xd2,0x81,0xcf,0x74,0x7d,0x53,0x9b,0xcc,0x72,0xc7,0xdf,0x1d,0x27,0xc0,0x75,0x96,0x0,0x7a,0x2a,0xe1,0x1d,0xa6,0x70,0x85,0x57,0x47,0x93,0x99,0x8f,0x7a,0xd3,0xf7,0xce,0x17,0xe,0x3b,0x42,0x2c,0x90,0xdb,0x53,0xc5,0xcf,0x47,0x15,0x9d,0x63,0x3c,0x8b,0x47,0xb4,0xd,0x82,0xc7,0xdd,0xec,0x29,0xe3,0x5e,0xd,0xa4,0x4a,0x39,0xc7,0x56,0xe6,0x3f,0xda,0x57,0x9e,0xeb,0x47,0x87,0x8e,0x8,0x1e,0x84,0x1,0x18,0x21,0x1f,0xe6,0x65,0x6f,0xd8,0x56,0xe2,0x4f,0x34,0x66,0xd,0x58,0x9e,0x4a,0xbe,0x4c,0xf8,0xe8,0xf4,0x6d,0xda,0x2b,0x23,0xa9,0xc5,0xb,0x8,0x35,0x4f,0x51,0x73,0x49,0x81,0xc8,0x93,0xa6,0xb6,0x55,0x39,0x3f,0x88,0x31,0xcf,0x64,0x9e,0x73,0x7d,0xbc,0x3b,0x27,0x65,0x7f,0xfb,0xec,0xd1,0xdd,0xd9,0xb,0xff,0x1e,0xf9,0x5a,0x56,0xac,0xbd,0x39,0x39,0x46,0x74,0x23,0x21,0xb6,0xa9,0x73,0x60,0x9e,0xcf,0xa0,0xe9,0xb8,0x3,0x77,0x38,0x7d,0xd,0x96,0xdf,0xef,0xa3,0xc1,0xb1,0x48,0xa7,0xda,0x6b,0xeb,0xea,0xbc,0xf,0x72,0x68,0x53,0xc,0x36,0x4,0xcc,0xc,0xc2,0xe9,0x40,0xaa,0x2e,0x88,0x93,0x48,0xf5,0x4a,0xb2,0x1,0x31,0x5f,0xb0,0xef,0x42,0x27,0x33,0x49,0x41,0xef,0xdb,0xc5,0xbc,0x62,0xd1,0x9e,0xdf,0x21,0xa0,0xcc,0x6d,0xec,0x9f,0xa2,0x99,0x1c,0xe2,0xf3,0xfe,0x79,0x3c,0x29,0x9a,0x5c,0x46,0x2c,0x25,0xf5,0x10,0xad,0xdb,0xd9,0x24,0xeb,0xc,0xaa,0x3,0xd0,0xbb,0xbb,0x19,0x26,0xb4,0x2,0x66,0xab,0xec,0x16,0x60,0x92,0x61,0x9c,0xb3,0x11,0x3b,0x66,0xe9,0xfe,0xba,0x6d,0x78,0x7c,0xf0,0xc4,0xf8,0xb6,0x24,0x8f,0xb5,0x1c,0x50,0xc4,0xf7,0x1e,0x6d,0xe,0xa1,0x36,0x60,0xee,0xd3,0xe,0x71,0x87,0xcd,0x86,0x11,0xcc,0x1,0x1,0x7f,0x13,0xad,0xda,0x4f,0xb9,0x87,0x3,0xd5,0x39,0xb4,0xa0,0x1a,0xb0,0xee,0x4f,0x52,0xc7,0xec,0xee,0x33,0x66,0x13,0xf6,0xf8,0xa3,0xf5,0x68,0xe0,0x5,0x8d,0x68,0x67,0xe2,0xce,0x67,0x44,0x68,0x3a,0x81,0x4e,0x27,0x35,0xd9,0xdf,0x11,0x4b,0x44,0xe2,0xf9,0x2d,0xc2,0x2d,0xdf,0x75,0x69,0xa,0x38,0xd3,0x65,0xb7,0x70,0x6e,0x66,0xb8,0xb8,0xd9,0x29,0xf8,0x8c,0xa6,0xb2,0x40,0x96,0xde,0x35,0xc4,0x50,0xde,0x7b,0x73,0x8a,0x31,0x62,0x1a,0x7b,0xfe,0xe3,0xbf,0x45,0xda,0x43,0xd0,0x53,0x57,0x90,0xdd,0x52,0xdf,0xf9,0xd4,0x8c,0x5b,0x12,0x34,0x6d,0xb9,0x29,0x69,0xf2,0x63,0x5,0x2f,0x35,0x21,0xcf,0xea,0xea,0x61,0x2f,0x78,0x1a,0xbc,0x4f,0xe8,0xb3,0xe3,0x46,0x88,0xa3,0xba,0x68,0x4d,0x0,0xb6,0x77,0xe5,0x2e,0xed,0x6c,0x91,0x7f,0x6,0x4,0xf3,0x2e,0x5,0x88,0x60,0x5b,0x50,0x42,0xad,0x12,0x53,0x57,0x0,0xae,0xd9,0x9b,0x53,0xda,0x3b,0x4,0x12,0x9c,0x81,0x49,0x3a,0xe4,0x6d,0x5e,0x2f,0xe8,0x9f,0xb,0x2e,0xaf,0x43,0x1b,0x83,0x26,0x51,0xd9,0x11,0x0,0x20,0xc7,0xff,0xb7,0xed,0x7,0x3,0x42,0xd6,0xc9,0x18,0x29,0x87,0xf1,0x8a,0xbf,0x1b,0x39,0xaa,0x85,0x58,0xe0,0x1b,0x5e,0x6c,0xb3,0xc1,0xde,0x45,0x70,0x51,0x76,0x6c,0x2a,0x5c,0x45,0xac,0xef,0xa7,0xe5,0xab,0xd5,0x3f,0xaf,0xa3,0xbf,0x22,0xb5,0x12,0x2a,0xff,0x5e,0x8c,0x13,0x2f,0x2e,0x4d,0x4c,0xd3,0xc5,0x6,0xd2,0xf9,0xe5,0x35,0xf0,0xaa,0xcf,0x55,0xfb,0x89,0xb6,0xc2,0xe,0x5d,0x17,0x5,0x36,0x1,0xa5,0x34,0xb6,0x2b,0x89,0x82,0x56,0xea,0x1b,0xe,0xf9,0xff,0xff,0x4,0x0,0x0,0x0,0xc0,0x3,0x0,0x0,0x59,0x5f,0x12,0xe4,0x99,0x9,0x67,0x81,0xa0,0x99,0xc2,0xed,0xe8,0x34,0xe6,0x66,0x7b,0x3a,0x88,0xc2,0xbd,0x7d,0xb4,0x9,0x38,0x43,0xad,0xf5,0x76,0x83,0x15,0xc9,0x56,0xe5,0xc3,0x16,0x93,0x7e,0x81,0x9d,0xf9,0xac,0xea,0x7d,0x5e,0x84,0x3,0xe5,0x61,0x6e,0xa5,0x27,0x2,0x65,0xd,0x2c,0x89,0x88,0x96,0x81,0xe1,0x85,0x5f,0x16,0x3a,0x18,0xaf,0x2a,0xd,0x10,0x1f,0xe1,0x45,0x1c,0x94,0xdc,0xcd,0x3e,0xed,0x81,0xfe,0x27,0x6,0x93,0x6e,0x8b,0x1c,0x19,0xe9,0x2b,0x97,0xa7,0x7e,0x9e,0x6,0x1e,0xac,0x20,0x37,0x70,0x5f,0x77,0x9d,0x81,0x62,0x24,0x7e,0xff,0xed,0xa8,0xde,0x33,0xd2,0x74,0x1,0x91,0x77,0xd4,0x66,0xff,0xf1,0x5b,0x8,0x7d,0x18,0x28,0x68,0x16,0x52,0x20,0x87,0x5e,0x75,0x40,0xb7,0xb2,0xe6,0x8d,0x19,0x81,0xc6,0xc4,0xff,0xbf,0x82,0xea,0x7,0xe0,0x3b,0xfc,0x48,0x69,0x8a,0x14,0x32,0x1d,0xde,0x7f,0x1a,0x40,0xb2,0xb5,0x91,0x7b,0x24,0x0,0xd,0x1a,0x14,0xa0,0x3e,0x81,0x15,0xc8,0x49,0xff,0xee,0x7b,0xbf,0x66,0xa6,0xfd,0x3,0xcf,0x3e,0xfa,0xd3,0x31,0x27,0xb8,0x45,0xb6,0xf,0x61,0x8a,0xf,0xaa,0x4d,0xdf,0x4a,0xa6,0x36,0xe4,0xbe,0xac,0x21,0x2d,0x2b,0xb3,0x57,0xfa,0xef,0xca,0x72,0x81,0x55,0xe7,0x38,0x99,0x62,0x7c,0x6f,0x56,0x1d,0x2a,0x57,0x71,0xb1,0x37,0x81,0x52,0xfe,0x67,0xc3,0xe6,0xc,0x2f,0xf5,0x73,0x88,0x94,0xfb,0xec,0x68,0x1,0x58,0x8a,0x1b,0x7c,0x81,0xc,0x21,0x3e,0x23,0xb3,0xed,0x38,0xdd,0x2c,0x61,0x40,0x9c,0x14,0xa0,0xab,0xe9,0x5d,0x61,0x91,0x74,0xac,0xed,0x7f,0x46,0x50,0x9e,0xf2,0xcd,0x67,0xdf,0xd4,0xe8,0xdd,0xc2,0x2,0x28,0xd8,0x29,0xe9,0x7f,0x3,0x8f,0xf9,0xf1,0x7c,0x96,0x62,0xfa,0x2b,0xc,0xee,0x35,0xde,0x89,0xcb,0x39,0x51,0x69,0x99,0x91,0x26,0x99,0x86,0x70,0x81,0xaf,0xe4,0xa5,0x16,0x5a,0x1b,0x12,0x1d,0x97,0xdd,0x97,0x20,0x49,0xfe,0xce,0xe9,0x88,0xc7,0xc8,0x7a,0xdd,0x4f,0x7f,0x4c,0x5c,0xaf,0x67,0x82,0xd3,0x70,0x29,0xe,0x68,0x54,0x79,0x92,0x9a,0x7a,0xf0,0x7a,0xf5,0xbb,0x7,0x74,0x22,0x1c,0x87,0x81,0x25,0xc6,0x41,0xa,0x1b,0x35,0x6e,0x34,0xac,0x2f,0x7f,0x3a,0x5a,0x5b,0x1d,0x69,0x9c,0x37,0x1c,0x84,0x59,0x7c,0x33,0x57,0xb6,0xa0,0x23,0xa0,0x8f,0xa8,0x81,0x61,0x71,0x4e,0xe8,0xf3,0x29,0x50,0x4d,0x22,0xad,0x13,0xee,0x5a,0x8c,0x27,0x42,0xae,0x5a,0xf,0xf5,0x90,0x8e,0x90,0x24,0xf0,0x2f,0x26,0x3b,0x65,0xf0,0x96,0x9e,0x7f,0x8d,0x50,0x4,0xa1,0xc4,0x46,0x6,0x6c,0xbc,0xbc,0x6d,0x42,0xfa,0x59,0x9e,0x3e,0x3,0x4b,0x61,0x97,0xbf,0xb6,0x41,0xb9,0x81,0x3d,0xd2,0x6a,0x37,0xaf,0x57,0xfb,0xba,0xfb,0x1b,0x18,0xea,0x96,0x57,0x97,0xa3,0x5f,0xaa,0x28,0x7a,0x57,0xe7,0x7f,0xa5,0xa1,0xc5,0x31,0xd2,0x3d,0xec,0xe3,0x82,0x55,0xed,0xa0,0x0,0x82,0x5a,0x97,0x70,0x6f,0x7f,0x6c,0x41,0xee,0xbe,0x7e,0xd5,0x24,0xb1,0x66,0xfa,0x29,0x40,0xee,0x35,0xa6,0x27,0xf0,0xcf,0xae,0x88,0x4b,0x7c,0xb9,0x81,0x45,0xb2,0xe6,0xd7,0x8e,0x46,0xc4,0x95,0x82,0x4e,0x50,0xe0,0xe3,0xfc,0x81,0xf3,0x6b,0x72,0xee,0xfe,0xfe,0x8,0x59,0x83,0x69,0x6b,0xee,0x3e,0xd2,0x29,0xdb,0x34,0xb4,0x6a,0x97,0x11,0x77,0xf7,0x64,0xc8,0xac,0xc8,0x75,0xc,0xd2,0x13,0x42,0x57,0x55,0x4c,0xf0,0x13,0x1d,0x7b,0x26,0xea,0x39,0x81,0x6a,0xb4,0x8c,0x0,0xfc,0x52,0x58,0x98,0x81,0x38,0xae,0x21,0xc7,0x3d,0x9f,0xdf,0x1e,0x19,0xce,0x88,0x48,0xea,0x9d,0xe,0x58,0x61,0xd9,0x19,0x6a,0xfa,0x23,0x3d,0x25,0x6c,0x48,0x81,0x40,0x89,0xf3,0xd1,0x76,0x3d,0x9b,0x2e,0xa5,0x38,0x5,0x21,0xcb,0x14,0xe2,0xd4,0xb3,0x97,0x9e,0x8,0x7b,0x44,0xcd,0x35,0x46,0x57,0x2,0x93,0xdc,0x48,0x5e,0x7,0x79,0xd0,0x81,0x89,0x38,0x69,0x67,0xec,0x16,0x51,0xfe,0x5f,0x12,0x6d,0x58,0x4,0x48,0xd4,0x40,0xfb,0x5c,0x50,0x26,0x7f,0x4b,0xb9,0x87,0x37,0xdc,0x13,0x38,0x1a,0x9f,0xf3,0x9b,0xfa,0x27,0x97,0x89,0xcd,0xc4,0xd5,0x44,0xea,0x66,0x81,0xcd,0x7a,0xbc,0x63,0x71,0xfe,0xee,0x17,0xf5,0x7,0xdb,0xf2,0x6e,0xaf,0x88,0x82,0x7f,0x53,0x34,0xd3,0x3,0x9c,0x8b,0x50,0xc3,0xdc,0xf3,0x52,0x89,0xa5,0x88,0xb8,0x5,0xf6,0x46,0xfa,0x6e,0x36,0x86,0xa8,0x9a,0x65,0xc7,0xe,0x3b,0xeb,0xd1,0x8a,0x17,0xd8,0xc3,0x99,0xe0,0x81,0xe3,0xd0,0xf8,0x20,0x34,0x6b,0xe0,0x6d,0xcd,0xc2,0x46,0xc7,0x77,0x61,0x28,0x13,0x33,0xf,0xe1,0x81,0x21,0xed,0xa3,0x0,0x71,0xf8,0xd1,0xfb,0x39,0xde,0xec,0xed,0xda,0xe5,0x66,0x86,0x74,0xa4,0x7f,0x7c,0x45,0xa7,0x32,0x5,0x4a,0x19,0x39,0xd8,0xf,0x2c,0x81,0xa7,0x54,0x79,0x44,0xc7,0xa7,0x6a,0xcc,0x88,0x72,0x99,0x30,0x64,0xb8,0x3,0xd2,0xdd,0x6a,0x47,0x79,0x7b,0xfa,0x41,0x3a,0xa6,0xcc,0x81,0xb0,0xb,0x3d,0x26,0x37,0x93,0x7,0x1,0xb,0x4f,0xe8,0x59,0xa4,0x1c,0x3e,0x34,0xb0,0xe2,0xe3,0x6a,0xcd,0x11,0x3,0xb4,0x39,0x6f,0x5a,0x4,0xde,0x26,0x86,0xba,0xe,0xdd,0x9d,0xdb,0xc4,0xaf,0x7f,0x2d,0x5c,0x83,0x39,0xe3,0x99,0xfa,0x3a,0x27,0x2,0x48,0x78,0x37,0x1d,0xd9,0xe8,0x5c,0x13,0x8a,0x7e,0x13,0xfb,0xf4,0x7f,0x42,0xbe,0xde,0x26,0x1d,0xb,0xbe,0x78,0x8e,0x95,0x42,0xf3,0xc2,0x54,0xbe,0xbb,0xd1,0xc9,0x62,0xee,0xe5,0xca,0x44,0x81,0xbd,0xd1,0x28,0xf1,0xc6,0xb3,0xeb,0x81,0x58,0x85,0x56,0x61,0x9e,0x3a,0x91,0xf3,0xad,0xb,0xa4,0x55,0x3f,0xe,0x8a,0xe6,0x72,0x3c,0xc0,0xdd,0x35,0xd,0x8d,0x6,0xfe,0x45,0xa9,0xed,0x20,0x5b,0x2e,0x81,0x54,0xf,0xfb,0x70,0x26,0x99,0x88,0xf3,0xc8,0x1e,0xf,0xda,0xfc,0xff,0xff,0x4,0x0,0x0,0x0,0xa0,0x0,0x0,0x0,0x0,0x0,0x0,0x0,0x0,0x0,0x0,0x0,0x0,0x0,0x0,0x0,0x0,0x0,0x0,0x0,0x0,0x0,0x0,0x0,0x0,0x0,0x0,0x0,0x0,0x0,0x0,0x0,0x0,0x0,0x0,0x0,0x0,0x0,0x0,0x0,0x0,0x0,0x0,0x0,0x0,0x0,0x0,0x0,0x0,0x0,0x0,0x0,0x0,0x0,0x0,0x0,0x0,0x0,0x0,0x0,0x0,0x0,0x0,0x0,0x0,0x0,0x0,0x0,0x0,0x0,0x0,0x0,0x0,0x0,0x0,0x0,0x0,0x0,0x0,0x0,0x0,0x0,0x0,0x0,0x0,0x0,0x0,0x0,0x0,0x0,0x0,0x0,0x0,0x0,0x0,0x0,0x0,0x0,0x0,0x0,0x0,0x0,0x0,0x0,0x0,0x0,0x0,0x0,0x0,0x0,0x0,0x0,0x0,0x0,0x0,0x0,0x0,0x0,0x0,0x0,0x0,0x0,0x0,0x0,0x0,0x0,0x0,0x0,0x0,0x0,0x0,0x0,0x0,0x0,0x0,0x0,0x0,0x0,0x0,0x0,0x0,0x0,0x0,0x0,0x0,0x0,0x0,0x0,0x0,0x0,0x0,0x0,0x0,0x0,0x0,0x0,0x0,0x0,0x0,0x0,0x0,0x0,0x0,0x0,0x86,0xfd,0xff,0xff,0x4,0x0,0x0,0x0,0x90,0x1,0x0,0x0,0x61,0xba,0x1e,0xb2,0x7b,0x9c,0x2d,0x2a,0x94,0x40,0x6d,0x8e,0x0,0xcc,0xa3,0xd5,0xf9,0x18,0xd3,0x4e,0x45,0x2f,0x2f,0xc6,0x6b,0x90,0xb,0xaf,0x5c,0x5e,0x77,0x52,0x50,0x81,0x2d,0x7,0xe4,0xa3,0x1b,0xbb,0xd,0x73,0x29,0xa9,0x17,0x1b,0xe2,0x96,0x92,0xde,0xf8,0xe8,0x19,0xef,0xcf,0x20,0x9f,0x83,0x1d,0x22,0xf5,0x31,0x2c,0x16,0x4e,0x85,0x4b,0x58,0xec,0x81,0xe9,0xd2,0x52,0x8f,0xb6,0xef,0xe0,0x44,0xd7,0x7f,0x9,0xf9,0xb9,0x6c,0x1,0x59,0x26,0x54,0x21,0x69,0xa7,0xa9,0xa5,0x95,0x7c,0x8a,0x81,0xa7,0x31,0xde,0x5c,0xfe,0x91,0xb3,0xf9,0xfa,0xc0,0xfe,0x39,0xcd,0xb9,0x97,0x5d,0x5d,0x76,0x83,0x38,0xca,0xbe,0x42,0x4b,0x8a,0x26,0x77,0x7f,0x29,0x8a,0xaa,0xb8,0x87,0xcd,0x58,0x3c,0x41,0x87,0xfe,0x93,0x25,0xc7,0x91,0xc3,0x4c,0x8a,0x2d,0x69,0x6e,0x40,0xe1,0x87,0x9d,0xfc,0xa6,0x93,0x89,0x60,0xb6,0x86,0xc4,0xae,0x22,0x20,0xc5,0x8f,0xe2,0x25,0x42,0x0,0x6c,0x5b,0x42,0x66,0xf5,0x77,0x95,0x7f,0x3b,0x74,0x94,0x3,0xe6,0xaa,0x75,0x67,0x3e,0x8e,0x5c,0x3d,0x13,0x5f,0x68,0xd8,0x63,0xe8,0xc2,0x5a,0xa7,0x74,0xab,0x57,0xec,0xb1,0x86,0xd2,0x6e,0x5d,0x41,0x0,0x59,0xe9,0x8c,0x8,0x2f,0x98,0xfb,0x16,0x85,0xd7,0x39,0xfa,0x84,0xf,0x5d,0xd4,0x50,0xcc,0x7e,0x43,0x66,0x94,0xd9,0xf,0xaa,0xae,0x2d,0xb3,0x7e,0x81,0x44,0xce,0x26,0xf5,0xba,0xf1,0x28,0x5b,0xd8,0x91,0x7f,0x31,0xe1,0xa4,0x0,0x9c,0x26,0xc6,0xd8,0xf9,0x8f,0x61,0x57,0xcc,0xb9,0xce,0x1c,0x67,0x29,0xcd,0x65,0xf9,0xf8,0x91,0x3a,0x7d,0xcd,0x59,0xaf,0x7,0x2f,0x2c,0x8e,0x99,0x32,0x39,0x45,0x6b,0x7f,0xb3,0x3a,0x0,0xfa,0xf9,0x57,0x78,0x5e,0x23,0xd9,0xaf,0xd6,0x48,0x50,0x27,0xc0,0xa7,0xd9,0x8e,0xa5,0x95,0x67,0x44,0xa5,0xc2,0xa5,0x60,0x62,0x57,0x26,0xea,0x1f,0xa4,0x1b,0x9,0xc9,0xd7,0x29,0xde,0x21,0xbe,0xb1,0xff,0x9f,0xcd,0x5b,0x32,0xbe,0xe1,0x8d,0x3,0x1d,0x23,0x43,0xdd,0x9d,0xd7,0xb,0x51,0xa7,0x25,0x41,0xc7,0x4a,0x11,0x81,0x0,0xd1,0x1b,0x32,0xe1,0x3f,0x5d,0x8,0xf2,0x7b,0x81,0xb4,0x9,0x82,0x25,0xe8,0x5d,0x11,0x43,0x62,0xa9,0x7b,0xd3,0x49,0xcb,0x17,0x76,0xf9,0xf0,0x9d,0x37,0x5d,0xf1,0xde,0x94,0xe8,0xda,0x3d,0x81,0x26,0xfa,0x98,0xbb,0xd8,0xa2,0x2a,0xb2,0xf7,0x22,0xff,0xff,0xff,0x4,0x0,0x0,0x0,0x28,0x0,0x0,0x0,0x0,0x0,0x0,0x0,0x0,0x0,0x0,0x0,0x0,0x0,0x0,0x0,0x0,0x0,0x0,0x0,0x0,0x0,0x0,0x0,0x0,0x0,0x0,0x0,0x0,0x0,0x0,0x0,0x0,0x0,0x0,0x0,0x0,0x0,0x0,0x0,0x0,0x0,0x0,0x0,0x56,0xff,0xff,0xff,0x4,0x0,0x0,0x0,0x8,0x0,0x0,0x0,0x1,0x0,0x0,0x0,0x2,0x0,0x0,0x0,0xd8,0xea,0xff,0xff,0xdc,0xea,0xff,0xff,0xf,0x0,0x0,0x0,0x4d,0x4c,0x49,0x52,0x20,0x43,0x6f,0x6e,0x76,0x65,0x72,0x74,0x65,0x64,0x2e,0x0,0x1,0x0,0x0,0x0,0x14,0x0,0x0,0x0,0x0,0x0,0xe,0x0,0x18,0x0,0x14,0x0,0x10,0x0,0xc,0x0,0x8,0x0,0x4,0x0,0xe,0x0,0x0,0x0,0x14,0x0,0x0,0x0,0x1c,0x0,0x0,0x0,0x38,0x2,0x0,0x0,0x3c,0x2,0x0,0x0,0x40,0x2,0x0,0x0,0x4,0x0,0x0,0x0,0x6d,0x61,0x69,0x6e,0x0,0x0,0x0,0x0,0x8,0x0,0x0,0x0,0xd4,0x1,0x0,0x0,0x84,0x1,0x0,0x0,0x44,0x1,0x0,0x0,0x4,0x1,0x0,0x0,0xc4,0x0,0x0,0x0,0x84,0x0,0x0,0x0,0x50,0x0,0x0,0x0,0x4,0x0,0x0,0x0,0xc6,0xff,0xff,0xff,0x1c,0x0,0x0,0x0,0x0,0x0,0x0,0x9,0x1c,0x0,0x0,0x0,0x20,0x0,0x0,0x0,0x2,0x0,0x0,0x0,0x0,0x0,0x6,0x0,0x8,0x0,0x4,0x0,0x6,0x0,0x0,0x0,0x0,0x0,0x80,0x3f,0x1,0x0,0x0,0x0,0x15,0x0,0x0,0x0,0x1,0x0,0x0,0x0,0x14,0x0,0x0,0x0,0x0,0x0,0xe,0x0,0x18,0x0,0x14,0x0,0x10,0x0,0xc,0x0,0xb,0x0,0x4,0x0,0xe,0x0,0x0,0x0,0x14,0x0,0x0,0x0,0x0,0x0,0x0,0x1b,0x10,0x0,0x0,0x0,0x14,0x0,0x0,0x0,0x1,0x0,0x0,0x0,0xb4,0xeb,0xff,0xff,0x1,0x0,0x0,0x0,0x14,0x0,0x0,0x0,0x2,0x0,0x0,0x0,0x13,0x0,0x0,0x0,0x1,0x0,0x0,0x0,0xd2,0xfe,0xff,0xff,0x10,0x0,0x0,0x0,0x0,0x0,0x0,0x1,0x18,0x0,0x0,0x0,0x1c,0x0,0x0,0x0,0xc4,0xfe,0xff,0xff,0x0,0x0,0x0,0x1,0x1,0x0,0x0,0x0,0x1,0x0,0x0,0x0,0x1,0x0,0x0,0x0,0x13,0x0,0x0,0x0,0x3,0x0,0x0,0x0,0x12,0x0,0x0,0x0,0x3,0x0,0x0,0x0,0x2,0x0,0x0,0x0,0xe,0xff,0xff,0xff,0x10,0x0,0x0,0x0,0x0,0x0,0x0,0x1,0x18,0x0,0x0,0x0,0x1c,0x0,0x0,0x0,0x0,0xff,0xff,0xff,0x0,0x0,0x0,0x1,0x1,0x0,0x0,0x0,0x1,0x0,0x0,0x0,0x1,0x0,0x0,0x0,0x12,0x0,0x0,0x0,0x3,0x0,0x0,0x0,0x11,0x0,0x0,0x0,0x5,0x0,0x0,0x0,0x4,0x0,0x0,0x0,0x4a,0xff,0xff,0xff,0x10,0x0,0x0,0x0,0x0,0x0,0x0,0x1,0x18,0x0,0x0,0x0,0x1c,0x0,0x0,0x0,0x3c,0xff,0xff,0xff,0x0,0x0,0x0,0x1,0x1,0x0,0x0,0x0,0x2,0x0,0x0,0x0,0x1,0x0,0x0,0x0,0x11,0x0,0x0,0x0,0x3,0x0,0x0,0x0,0x10,0x0,0x0,0x0,0x6,0x0,0x0,0x0,0x8,0x0,0x0,0x0,0x86,0xff,0xff,0xff,0x10,0x0,0x0,0x0,0x0,0x0,0x0,0x1,0x18,0x0,0x0,0x0,0x1c,0x0,0x0,0x0,0x78,0xff,0xff,0xff,0x0,0x0,0x0,0x1,0x1,0x0,0x0,0x0,0x2,0x0,0x0,0x0,0x1,0x0,0x0,0x0,0x10,0x0,0x0,0x0,0x3,0x0,0x0,0x0,0xf,0x0,0x0,0x0,0x9,0x0,0x0,0x0,0x7,0x0,0x0,0x0,0xc2,0xff,0xff,0xff,0x10,0x0,0x0,0x0,0x0,0x0,0x0,0x1,0x18,0x0,0x0,0x0,0x1c,0x0,0x0,0x0,0xb4,0xff,0xff,0xff,0x0,0x0,0x0,0x1,0x2,0x0,0x0,0x0,0x1,0x0,0x0,0x0,0x1,0x0,0x0,0x0,0xf,0x0,0x0,0x0,0x3,0x0,0x0,0x0,0xe,0x0,0x0,0x0,0xa,0x0,0x0,0x0,0xc,0x0,0x0,0x0,0x0,0x0,0xe,0x0,0x14,0x0,0x0,0x0,0x10,0x0,0xc,0x0,0xb,0x0,0x4,0x0,0xe,0x0,0x0,0x0,0x1c,0x0,0x0,0x0,0x0,0x0,0x0,0x1,0x24,0x0,0x0,0x0,0x28,0x0,0x0,0x0,0xc,0x0,0x10,0x0,0x0,0x0,0xc,0x0,0x8,0x0,0x7,0x0,0xc,0x0,0x0,0x0,0x0,0x0,0x0,0x1,0x2,0x0,0x0,0x0,0x1,0x0,0x0,0x0,0x1,0x0,0x0,0x0,0xe,0x0,0x0,0x0,0x3,0x0,0x0,0x0,0x0,0x0,0x0,0x0,0xd,0x0,0x0,0x0,0xb,0x0,0x0,0x0,0x1,0x0,0x0,0x0,0x15,0x0,0x0,0x0,0x1,0x0,0x0,0x0,0x0,0x0,0x0,0x0,0x16,0x0,0x0,0x0,0x4,0x13,0x0,0x0,0x7c,0x12,0x0,0x0,0x80,0x11,0x0,0x0,0x9c,0x10,0x0,0x0,0x50,0xe,0x0,0x0,0x4,0xc,0x0,0x0,0x38,0xb,0x0,0x0,0x6c,0xa,0x0,0x0,0xa0,0x9,0x0,0x0,0xd4,0x8,0x0,0x0,0x38,0x8,0x0,0x0,0x9c,0x7,0x0,0x0,0x0,0x7,0x0,0x0,0x64,0x6,0x0,0x0,0x80,0x5,0x0,0x0,0x9c,0x4,0x0,0x0,0xb8,0x3,0x0,0x0,0xd4,0x2,0x0,0x0,0xf0,0x1,0x0,0x0,0xc,0x1,0x0,0x0,0x80,0x0,0x0,0x0,0x4,0x0,0x0,0x0,0x6a,0xed,0xff,0xff,0x0,0x0,0x0,0x1,0x18,0x0,0x0,0x0,0x20,0x0,0x0,0x0,0x3c,0x0,0x0,0x0,0x16,0x0,0x0,0x0,0x0,0x0,0x0,0x9,0x50,0x0,0x0,0x0,0x2,0x0,0x0,0x0,0xff,0xff,0xff,0xff,0xa,0x0,0x0,0x0,0x4c,0xed,0xff,0xff,0x8,0x0,0x0,0x0,0x10,0x0,0x0,0x0,0x1,0x0,0x0,0x0,0x80,0xff,0xff,0xff,0xff,0xff,0xff,0xff,0x1,0x0,0x0,0x0,0x0,0x0,0x80,0x3b,0x19,0x0,0x0,0x0,0x53,0x74,0x61,0x74,0x65,0x66,0x75,0x6c,0x50,0x61,0x72,0x74,0x69,0x74,0x69,0x6f,0x6e,0x65,0x64,0x43,0x61,0x6c,0x6c,0x3a,0x30,0x0,0x0,0x0,0x2,0x0,0x0,0x0,0x1,0x0,0x0,0x0,0xa,0x0,0x0,0x0,0xe2,0xed,0xff,0xff,0x0,0x0,0x0,0x1,0x18,0x0,0x0,0x0,0x20,0x0,0x0,0x0,0x40,0x0,0x0,0x0,0x15,0x0,0x0,0x0,0x0,0x0,0x0,0x9,0x60,0x0,0x0,0x0,0x2,0x0,0x0,0x0,0xff,0xff,0xff,0xff,0xa,0x0,0x0,0x0,0xc4,0xed,0xff,0xff,0x8,0x0,0x0,0x0,0x14,0x0,0x0,0x0,0x1,0x0,0x0,0x0,0x80,0xff,0xff,0xff,0xff,0xff,0xff,0xff,0x0,0x0,0x0,0x0,0x1,0x0,0x0,0x0,0xae,0x7,0x35,0x39,0x27,0x0,0x0,0x0,0x6d,0x6f,0x64,0x65,0x6c,0x5f,0x34,0x2f,0x67,0x6c,0x6f,0x62,0x61,0x6c,0x5f,0x61,0x76,0x65,0x72,0x61,0x67,0x65,0x5f,0x70,0x6f,0x6f,0x6c,0x69,0x6e,0x67,0x32,0x64,0x5f,0x34,0x2f,0x4d,0x65,0x61,0x6e,0x0,0x2,0x0,0x0,0x0,0x1,0x0,0x0,0x0,0xa,0x0,0x0,0x0,0x6a,0xee,0xff,0xff,0x0,0x0,0x0,0x1,0x18,0x0,0x0,0x0,0x28,0x0,0x0,0x0,0x44,0x0,0x0,0x0,0x14,0x0,0x0,0x0,0x0,0x0,0x0,0x9,0xb0,0x0,0x0,0x0,0x4,0x0,0x0,0x0,0xff,0xff,0xff,0xff,0x10,0x0,0x0,0x0,0x8,0x0,0x0,0x0,0xa,0x0,0x0,0x0,0x54,0xee,0xff,0xff,0x8,0x0,0x0,0x0,0x10,0x0,0x0,0x0,0x1,0x0,0x0,0x0,0x80,0xff,0xff,0xff,0xff,0xff,0xff,0xff,0x1,0x0,0x0,0x0,0x33,0x54,0xcc,0x39,0x72,0x0,0x0,0x0,0x6d,0x6f,0x64,0x65,0x6c,0x5f,0x34,0x2f,0x63,0x6f,0x6e,0x76,0x32,0x64,0x5f,0x35,0x34,0x2f,0x52,0x65,0x6c,0x75,0x3b,0x6d,0x6f,0x64,0x65,0x6c,0x5f,0x34,0x2f,0x63,0x6f,0x6e,0x76,0x32,0x64,0x5f,0x35,0x34,0x2f,0x42,0x69,0x61,0x73,0x41,0x64,0x64,0x3b,0x6d,0x6f,0x64,0x65,0x6c,0x5f,0x34,0x2f,0x63,0x6f,0x6e,0x76,0x32,0x64,0x5f,0x35,0x34,0x2f,0x42,0x69,0x61,0x73,0x41,0x64,0x64,0x2f,0x52,0x65,0x61,0x64,0x56,0x61,0x72,0x69,0x61,0x62,0x6c,0x65,0x4f,0x70,0x3b,0x6d,0x6f,0x64,0x65,0x6c,0x5f,0x34,0x2f,0x63,0x6f,0x6e,0x76,0x32,0x64,0x5f,0x35,0x34,0x2f,0x43,0x6f,0x6e,0x76,0x32,0x44,0x0,0x0,0x4,0x0,0x0,0x0,0x1,0x0,0x0,0x0,0x10,0x0,0x0,0x0,0x8,0x0,0x0,0x0,0xa,0x0,0x0,0x0,0x4a,0xef,0xff,0xff,0x0,0x0,0x0,0x1,0x18,0x0,0x0,0x0,0x28,0x0,0x0,0x0,0x44,0x0,0x0,0x0,0x13,0x0,0x0,0x0,0x0,0x0,0x0,0x9,0xb0,0x0,0x0,0x0,0x4,0x0,0x0,0x0,0xff,0xff,0xff,0xff,0x10,0x0,0x0,0x0,0x8,0x0,0x0,0x0,0x28,0x0,0x0,0x0,0x34,0xef,0xff,0xff,0x8,0x0,0x0,0x0,0x10,0x0,0x0,0x0,0x1,0x0,0x0,0x0,0x80,0xff,0xff,0xff,0xff,0xff,0xff,0xff,0x1,0x0,0x0,0x0,0x4e,0xed,0xff,0x39,0x72,0x0,0x0,0x0,0x6d,0x6f,0x64,0x65,0x6c,0x5f,0x34,0x2f,0x63,0x6f,0x6e,0x76,0x32,0x64,0x5f,0x35,0x31,0x2f,0x52,0x65,0x6c,0x75,0x3b,0x6d,0x6f,0x64,0x65,0x6c,0x5f,0x34,0x2f,0x63,0x6f,0x6e,0x76,0x32,0x64,0x5f,0x35,0x31,0x2f,0x42,0x69,0x61,0x73,0x41,0x64,0x64,0x3b,0x6d,0x6f,0x64,0x65,0x6c,0x5f,0x34,0x2f,0x63,0x6f,0x6e,0x76,0x32,0x64,0x5f,0x35,0x31,0x2f,0x42,0x69,0x61,0x73,0x41,0x64,0x64,0x2f,0x52,0x65,0x61,0x64,0x56,0x61,0x72,0x69,0x61,0x62,0x6c,0x65,0x4f,0x70,0x3b,0x6d,0x6f,0x64,0x65,0x6c,0x5f,0x34,0x2f,0x63,0x6f,0x6e,0x76,0x32,0x64,0x5f,0x35,0x31,0x2f,0x43,0x6f,0x6e,0x76,0x32,0x44,0x0,0x0,0x4,0x0,0x0,0x0,0x1,0x0,0x0,0x0,0x10,0x0,0x0,0x0,0x8,0x0,0x0,0x0,0x28,0x0,0x0,0x0,0x2a,0xf0,0xff,0xff,0x0,0x0,0x0,0x1,0x18,0x0,0x0,0x0,0x28,0x0,0x0,0x0,0x44,0x0,0x0,0x0,0x12,0x0,0x0,0x0,0x0,0x0,0x0,0x9,0xb0,0x0,0x0,0x0,0x4,0x0,0x0,0x0,0xff,0xff,0xff,0xff,0x10,0x0,0x0,0x0,0x8,0x0,0x0,0x0,0x8,0x0,0x0,0x0,0x14,0xf0,0xff,0xff,0x8,0x0,0x0,0x0,0x10,0x0,0x0,0x0,0x1,0x0,0x0,0x0,0x80,0xff,0xff,0xff,0xff,0xff,0xff,0xff,0x1,0x0,0x0,0x0,0x66,0x7a,0x41,0x3a,0x72,0x0,0x0,0x0,0x6d,0x6f,0x64,0x65,0x6c,0x5f,0x34,0x2f,0x63,0x6f,0x6e,0x76,0x32,0x64,0x5f,0x35,0x30,0x2f,0x52,0x65,0x6c,0x75,0x3b,0x6d,0x6f,0x64,0x65,0x6c,0x5f,0x34,0x2f,0x63,0x6f,0x6e,0x76,0x32,0x64,0x5f,0x35,0x30,0x2f,0x42,0x69,0x61,0x73,0x41,0x64,0x64,0x3b,0x6d,0x6f,0x64,0x65,0x6c,0x5f,0x34,0x2f,0x63,0x6f,0x6e,0x76,0x32,0x64,0x5f,0x34,0x37,0x2f,0x42,0x69,0x61,0x73,0x41,0x64,0x64,0x2f,0x52,0x65,0x61,0x64,0x56,0x61,0x72,0x69,0x61,0x62,0x6c,0x65,0x4f,0x70,0x3b,0x6d,0x6f,0x64,0x65,0x6c,0x5f,0x34,0x2f,0x63,0x6f,0x6e,0x76,0x32,0x64,0x5f,0x35,0x30,0x2f,0x43,0x6f,0x6e,0x76,0x32,0x44,0x0,0x0,0x4,0x0,0x0,0x0,0x1,0x0,0x0,0x0,0x10,0x0,0x0,0x0,0x8,0x0,0x0,0x0,0x8,0x0,0x0,0x0,0xa,0xf1,0xff,0xff,0x0,0x0,0x0,0x1,0x18,0x0,0x0,0x0,0x28,0x0,0x0,0x0,0x44,0x0,0x0,0x0,0x11,0x0,0x0,0x0,0x0,0x0,0x0,0x9,0xb0,0x0,0x0,0x0,0x4,0x0,0x0,0x0,0xff,0xff,0xff,0xff,0x10,0x0,0x0,0x0,0xf,0x0,0x0,0x0,0x8,0x0,0x0,0x0,0xf4,0xf0,0xff,0xff,0x8,0x0,0x0,0x0,0x10,0x0,0x0,0x0,0x1,0x0,0x0,0x0,0x80,0xff,0xff,0xff,0xff,0xff,0xff,0xff,0x1,0x0,0x0,0x0,0xad,0xd2,0x96,0x3a,0x72,0x0,0x0,0x0,0x6d,0x6f,0x64,0x65,0x6c,0x5f,0x34,0x2f,0x63,0x6f,0x6e,0x76,0x32,0x64,0x5f,0x34,0x37,0x2f,0x52,0x65,0x6c,0x75,0x3b,0x6d,0x6f,0x64,0x65,0x6c,0x5f,0x34,0x2f,0x63,0x6f,0x6e,0x76,0x32,0x64,0x5f,0x34,0x37,0x2f,0x42,0x69,0x61,0x73,0x41,0x64,0x64,0x3b,0x6d,0x6f,0x64,0x65,0x6c,0x5f,0x34,0x2f,0x63,0x6f,0x6e,0x76,0x32,0x64,0x5f,0x34,0x37,0x2f,0x42,0x69,0x61,0x73,0x41,0x64,0x64,0x2f,0x52,0x65,0x61,0x64,0x56,0x61,0x72,0x69,0x61,0x62,0x6c,0x65,0x4f,0x70,0x3b,0x6d,0x6f,0x64,0x65,0x6c,0x5f,0x34,0x2f,0x63,0x6f,0x6e,0x76,0x32,0x64,0x5f,0x34,0x37,0x2f,0x43,0x6f,0x6e,0x76,0x32,0x44,0x0,0x0,0x4,0x0,0x0,0x0,0x1,0x0,0x0,0x0,0x10,0x0,0x0,0x0,0xf,0x0,0x0,0x0,0x8,0x0,0x0,0x0,0xea,0xf1,0xff,0xff,0x0,0x0,0x0,0x1,0x18,0x0,0x0,0x0,0x28,0x0,0x0,0x0,0x44,0x0,0x0,0x0,0x10,0x0,0x0,0x0,0x0,0x0,0x0,0x9,0xb0,0x0,0x0,0x0,0x4,0x0,0x0,0x0,0xff,0xff,0xff,0xff,0x10,0x0,0x0,0x0,0x1e,0x0,0x0,0x0,0x4,0x0,0x0,0x0,0xd4,0xf1,0xff,0xff,0x8,0x0,0x0,0x0,0x10,0x0,0x0,0x0,0x1,0x0,0x0,0x0,0x80,0xff,0xff,0xff,0xff,0xff,0xff,0xff,0x1,0x0,0x0,0x0,0x37,0x5a,0xea,0x3a,0x72,0x0,0x0,0x0,0x6d,0x6f,0x64,0x65,0x6c,0x5f,0x34,0x2f,0x63,0x6f,0x6e,0x76,0x32,0x64,0x5f,0x34,0x35,0x2f,0x52,0x65,0x6c,0x75,0x3b,0x6d,0x6f,0x64,0x65,0x6c,0x5f,0x34,0x2f,0x63,0x6f,0x6e,0x76,0x32,0x64,0x5f,0x34,0x35,0x2f,0x42,0x69,0x61,0x73,0x41,0x64,0x64,0x3b,0x6d,0x6f,0x64,0x65,0x6c,0x5f,0x34,0x2f,0x63,0x6f,0x6e,0x76,0x32,0x64,0x5f,0x34,0x34,0x2f,0x42,0x69,0x61,0x73,0x41,0x64,0x64,0x2f,0x52,0x65,0x61,0x64,0x56,0x61,0x72,0x69,0x61,0x62,0x6c,0x65,0x4f,0x70,0x3b,0x6d,0x6f,0x64,0x65,0x6c,0x5f,0x34,0x2f,0x63,0x6f,0x6e,0x76,0x32,0x64,0x5f,0x34,0x35,0x2f,0x43,0x6f,0x6e,0x76,0x32,0x44,0x0,0x0,0x4,0x0,0x0,0x0,0x1,0x0,0x0,0x0,0x10,0x0,0x0,0x0,0x1e,0x0,0x0,0x0,0x4,0x0,0x0,0x0,0xca,0xf2,0xff,0xff,0x0,0x0,0x0,0x1,0x18,0x0,0x0,0x0,0x28,0x0,0x0,0x0,0x44,0x0,0x0,0x0,0xf,0x0,0x0,0x0,0x0,0x0,0x0,0x9,0xb0,0x0,0x0,0x0,0x4,0x0,0x0,0x0,0xff,0xff,0xff,0xff,0x20,0x0,0x0,0x0,0x1e,0x0,0x0,0x0,0x4,0x0,0x0,0x0,0xb4,0xf2,0xff,0xff,0x8,0x0,0x0,0x0,0x10,0x0,0x0,0x0,0x1,0x0,0x0,0x0,0x80,0xff,0xff,0xff,0xff,0xff,0xff,0xff,0x1,0x0,0x0,0x0,0x4c,0x40,0x5,0x3b,0x72,0x0,0x0,0x0,0x6d,0x6f,0x64,0x65,0x6c,0x5f,0x34,0x2f,0x63,0x6f,0x6e,0x76,0x32,0x64,0x5f,0x34,0x34,0x2f,0x52,0x65,0x6c,0x75,0x3b,0x6d,0x6f,0x64,0x65,0x6c,0x5f,0x34,0x2f,0x63,0x6f,0x6e,0x76,0x32,0x64,0x5f,0x34,0x34,0x2f,0x42,0x69,0x61,0x73,0x41,0x64,0x64,0x3b,0x6d,0x6f,0x64,0x65,0x6c,0x5f,0x34,0x2f,0x63,0x6f,0x6e,0x76,0x32,0x64,0x5f,0x34,0x34,0x2f,0x42,0x69,0x61,0x73,0x41,0x64,0x64,0x2f,0x52,0x65,0x61,0x64,0x56,0x61,0x72,0x69,0x61,0x62,0x6c,0x65,0x4f,0x70,0x3b,0x6d,0x6f,0x64,0x65,0x6c,0x5f,0x34,0x2f,0x63,0x6f,0x6e,0x76,0x32,0x64,0x5f,0x34,0x34,0x2f,0x43,0x6f,0x6e,0x76,0x32,0x44,0x0,0x0,0x4,0x0,0x0,0x0,0x1,0x0,0x0,0x0,0x20,0x0,0x0,0x0,0x1e,0x0,0x0,0x0,0x4,0x0,0x0,0x0,0x2e,0xf4,0xff,0xff,0x0,0x0,0x0,0x1,0x14,0x0,0x0,0x0,0x58,0x0,0x0,0x0,0xe,0x0,0x0,0x0,0x0,0x0,0x0,0x9,0x6c,0x0,0x0,0x0,0x7c,0xf3,0xff,0xff,0x8,0x0,0x0,0x0,0x2c,0x0,0x0,0x0,0x4,0x0,0x0,0x0,0x0,0x0,0x0,0x0,0x0,0x0,0x0,0x0,0x0,0x0,0x0,0x0,0x0,0x0,0x0,0x0,0x0,0x0,0x0,0x0,0x0,0x0,0x0,0x0,0x0,0x0,0x0,0x0,0x0,0x0,0x0,0x0,0x0,0x0,0x0,0x0,0x4,0x0,0x0,0x0,0xc6,0xd3,0x51,0x3b,0x86,0xc7,0x75,0x3b,0xc8,0x8e,0x77,0x3b,0xa3,0x81,0xf,0x3b,0x18,0x0,0x0,0x0,0x6d,0x6f,0x64,0x65,0x6c,0x5f,0x34,0x2f,0x63,0x6f,0x6e,0x76,0x32,0x64,0x5f,0x34,0x34,0x2f,0x43,0x6f,0x6e,0x76,0x32,0x44,0x0,0x0,0x0,0x0,0x4,0x0,0x0,0x0,0x4,0x0,0x0,0x0,0x3,0x0,0x0,0x0,0x1,0x0,0x0,0x0,0x1,0x0,0x0,0x0,0xc6,0xf4,0xff,0xff,0x0,0x0,0x0,0x1,0x14,0x0,0x0,0x0,0x54,0x0,0x0,0x0,0xc,0x0,0x0,0x0,0x0,0x0,0x0,0x2,0x78,0x0,0x0,0x0,0x14,0xf4,0xff,0xff,0x8,0x0,0x0,0x0,0x28,0x0,0x0,0x0,0x4,0x0,0x0,0x0,0x0,0x0,0x0,0x0,0x0,0x0,0x0,0x0,0x0,0x0,0x0,0x0,0x0,0x0,0x0,0x0,0x0,0x0,0x0,0x0,0x0,0x0,0x0,0x0,0x0,0x0,0x0,0x0,0x0,0x0,0x0,0x0,0x4,0x0,0x0,0x0,0xc1,0x69,0x3,0x37,0x84,0x5a,0xe2,0x36,0xd9,0x6d,0xf4,0x36,0x1,0xf4,0x3,0x37,0x29,0x0,0x0,0x0,0x6d,0x6f,0x64,0x65,0x6c,0x5f,0x34,0x2f,0x63,0x6f,0x6e,0x76,0x32,0x64,0x5f,0x34,0x34,0x2f,0x42,0x69,0x61,0x73,0x41,0x64,0x64,0x2f,0x52,0x65,0x61,0x64,0x56,0x61,0x72,0x69,0x61,0x62,0x6c,0x65,0x4f,0x70,0x31,0x0,0x0,0x0,0x1,0x0,0x0,0x0,0x4,0x0,0x0,0x0,0x5e,0xf5,0xff,0xff,0x0,0x0,0x0,0x1,0x14,0x0,0x0,0x0,0x54,0x0,0x0,0x0,0xc,0x0,0x0,0x0,0x0,0x0,0x0,0x2,0x78,0x0,0x0,0x0,0xac,0xf4,0xff,0xff,0x8,0x0,0x0,0x0,0x28,0x0,0x0,0x0,0x4,0x0,0x0,0x0,0x0,0x0,0x0,0x0,0x0,0x0,0x0,0x0,0x0,0x0,0x0,0x0,0x0,0x0,0x0,0x0,0x0,0x0,0x0,0x0,0x0,0x0,0x0,0x0,0x0,0x0,0x0,0x0,0x0,0x0,0x0,0x0,0x4,0x0,0x0,0x0,0x8,0xa6,0x52,0x37,0xce,0xbd,0x76,0x37,0xd8,0x86,0x78,0x37,0x70,0x11,0x10,0x37,0x28,0x0,0x0,0x0,0x6d,0x6f,0x64,0x65,0x6c,0x5f,0x34,0x2f,0x63,0x6f,0x6e,0x76,0x32,0x64,0x5f,0x34,0x34,0x2f,0x42,0x69,0x61,0x73,0x41,0x64,0x64,0x2f,0x52,0x65,0x61,0x64,0x56,0x61,0x72,0x69,0x61,0x62,0x6c,0x65,0x4f,0x70,0x0,0x0,0x0,0x0,0x1,0x0,0x0,0x0,0x4,0x0,0x0,0x0,0xf6,0xf5,0xff,0xff,0x0,0x0,0x0,0x1,0x14,0x0,0x0,0x0,0x58,0x0,0x0,0x0,0xb,0x0,0x0,0x0,0x0,0x0,0x0,0x9,0x6c,0x0,0x0,0x0,0x44,0xf5,0xff,0xff,0x8,0x0,0x0,0x0,0x2c,0x0,0x0,0x0,0x4,0x0,0x0,0x0,0x0,0x0,0x0,0x0,0x0,0x0,0x0,0x0,0x0,0x0,0x0,0x0,0x0,0x0,0x0,0x0,0x0,0x0,0x0,0x0,0x0,0x0,0x0,0x0,0x0,0x0,0x0,0x0,0x0,0x0,0x0,0x0,0x0,0x0,0x0,0x0,0x4,0x0,0x0,0x0,0x0,0x78,0x7c,0x3b,0xf6,0x6e,0x59,0x3b,0xf0,0xcb,0x6a,0x3b,0x9b,0x81,0x7d,0x3b,0x18,0x0,0x0,0x0,0x6d,0x6f,0x64,0x65,0x6c,0x5f,0x34,0x2f,0x63,0x6f,0x6e,0x76,0x32,0x64,0x5f,0x34,0x35,0x2f,0x43,0x6f,0x6e,0x76,0x32,0x44,0x0,0x0,0x0,0x0,0x4,0x0,0x0,0x0,0x4,0x0,0x0,0x0,0x3,0x0,0x0,0x0,0x1,0x0,0x0,0x0,0x4,0x0,0x0,0x0,0x8e,0xf6,0xff,0xff,0x0,0x0,0x0,0x1,0x14,0x0,0x0,0x0,0x88,0x0,0x0,0x0,0xa,0x0,0x0,0x0,0x0,0x0,0x0,0x9,0x9c,0x0,0x0,0x0,0xdc,0xf5,0xff,0xff,0x8,0x0,0x0,0x0,0x4c,0x0,0x0,0x0,0x8,0x0,0x0,0x0,0x0,0x0,0x0,0x0,0x0,0x0,0x0,0x0,0x0,0x0,0x0,0x0,0x0,0x0,0x0,0x0,0x0,0x0,0x0,0x0,0x0,0x0,0x0,0x0,0x0,0x0,0x0,0x0,0x0,0x0,0x0,0x0,0x0,0x0,0x0,0x0,0x0,0x0,0x0,0x0,0x0,0x0,0x0,0x0,0x0,0x0,0x0,0x0,0x0,0x0,0x0,0x0,0x0,0x0,0x0,0x0,0x0,0x0,0x0,0x0,0x0,0x0,0x0,0x0,0x0,0x0,0x0,0x0,0x8,0x0,0x0,0x0,0x4b,0x39,0x7b,0x3b,0x2a,0x83,0x66,0x3b,0x1a,0x5d,0x79,0x3b,0x55,0xa0,0x2b,0x3b,0x1a,0x6f,0x7f,0x3b,0x4,0x58,0x6a,0x3b,0xa7,0x2,0x80,0x3b,0xfc,0x41,0x6c,0x3b,0x18,0x0,0x0,0x0,0x6d,0x6f,0x64,0x65,0x6c,0x5f,0x34,0x2f,0x63,0x6f,0x6e,0x76,0x32,0x64,0x5f,0x34,0x37,0x2f,0x43,0x6f,0x6e,0x76,0x32,0x44,0x0,0x0,0x0,0x0,0x4,0x0,0x0,0x0,0x8,0x0,0x0,0x0,0x1,0x0,0x0,0x0,0x2,0x0,0x0,0x0,0x4,0x0,0x0,0x0,0x56,0xf7,0xff,0xff,0x0,0x0,0x0,0x1,0x14,0x0,0x0,0x0,0x84,0x0,0x0,0x0,0x8,0x0,0x0,0x0,0x0,0x0,0x0,0x2,0xa8,0x0,0x0,0x0,0xa4,0xf6,0xff,0xff,0x8,0x0,0x0,0x0,0x48,0x0,0x0,0x0,0x8,0x0,0x0,0x0,0x0,0x0,0x0,0x0,0x0,0x0,0x0,0x0,0x0,0x0,0x0,0x0,0x0,0x0,0x0,0x0,0x0,0x0,0x0,0x0,0x0,0x0,0x0,0x0,0x0,0x0,0x0,0x0,0x0,0x0,0x0,0x0,0x0,0x0,0x0,0x0,0x0,0x0,0x0,0x0,0x0,0x0,0x0,0x0,0x0,0x0,0x0,0x0,0x0,0x0,0x0,0x0,0x0,0x0,0x0,0x0,0x0,0x0,0x0,0x0,0x0,0x0,0x0,0x0,0x8,0x0,0x0,0x0,0x14,0xdc,0xbe,0x35,0x42,0x8b,0xbf,0x35,0xfd,0xb7,0xb8,0x35,0xd6,0xfc,0xbf,0x35,0x45,0xa3,0xbf,0x35,0x3d,0x13,0xbf,0x35,0x26,0x87,0xbf,0x35,0x97,0x7e,0xbe,0x35,0x29,0x0,0x0,0x0,0x6d,0x6f,0x64,0x65,0x6c,0x5f,0x34,0x2f,0x63,0x6f,0x6e,0x76,0x32,0x64,0x5f,0x34,0x37,0x2f,0x42,0x69,0x61,0x73,0x41,0x64,0x64,0x2f,0x52,0x65,0x61,0x64,0x56,0x61,0x72,0x69,0x61,0x62,0x6c,0x65,0x4f,0x70,0x31,0x0,0x0,0x0,0x1,0x0,0x0,0x0,0x8,0x0,0x0,0x0,0x1e,0xf8,0xff,0xff,0x0,0x0,0x0,0x1,0x14,0x0,0x0,0x0,0x84,0x0,0x0,0x0,0x8,0x0,0x0,0x0,0x0,0x0,0x0,0x2,0xa8,0x0,0x0,0x0,0x6c,0xf7,0xff,0xff,0x8,0x0,0x0,0x0,0x48,0x0,0x0,0x0,0x8,0x0,0x0,0x0,0x0,0x0,0x0,0x0,0x0,0x0,0x0,0x0,0x0,0x0,0x0,0x0,0x0,0x0,0x0,0x0,0x0,0x0,0x0,0x0,0x0,0x0,0x0,0x0,0x0,0x0,0x0,0x0,0x0,0x0,0x0,0x0,0x0,0x0,0x0,0x0,0x0,0x0,0x0,0x0,0x0,0x0,0x0,0x0,0x0,0x0,0x0,0x0,0x0,0x0,0x0,0x0,0x0,0x0,0x0,0x0,0x0,0x0,0x0,0x0,0x0,0x0,0x0,0x0,0x8,0x0,0x0,0x0,0xe7,0xfa,0xe5,0x36,0x20,0x5,0xd3,0x36,0xfa,0x46,0xe4,0x36,0x9,0x1d,0x9d,0x36,0x92,0xd5,0xe9,0x36,0x9,0x87,0xd6,0x36,0x12,0x5f,0xea,0x36,0x92,0x47,0xd8,0x36,0x28,0x0,0x0,0x0,0x6d,0x6f,0x64,0x65,0x6c,0x5f,0x34,0x2f,0x63,0x6f,0x6e,0x76,0x32,0x64,0x5f,0x34,0x37,0x2f,0x42,0x69,0x61,0x73,0x41,0x64,0x64,0x2f,0x52,0x65,0x61,0x64,0x56,0x61,0x72,0x69,0x61,0x62,0x6c,0x65,0x4f,0x70,0x0,0x0,0x0,0x0,0x1,0x0,0x0,0x0,0x8,0x0,0x0,0x0,0xe6,0xf8,0xff,0xff,0x0,0x0,0x0,0x1,0x14,0x0,0x0,0x0,0x88,0x0,0x0,0x0,0x7,0x0,0x0,0x0,0x0,0x0,0x0,0x9,0x9c,0x0,0x0,0x0,0x34,0xf8,0xff,0xff,0x8,0x0,0x0,0x0,0x4c,0x0,0x0,0x0,0x8,0x0,0x0,0x0,0x0,0x0,0x0,0x0,0x0,0x0,0x0,0x0,0x0,0x0,0x0,0x0,0x0,0x0,0x0,0x0,0x0,0x0,0x0,0x0,0x0,0x0,0x0,0x0,0x0,0x0,0x0,0x0,0x0,0x0,0x0,0x0,0x0,0x0,0x0,0x0,0x0,0x0,0x0,0x0,0x0,0x0,0x0,0x0,0x0,0x0,0x0,0x0,0x0,0x0,0x0,0x0,0x0,0x0,0x0,0x0,0x0,0x0,0x0,0x0,0x0,0x0,0x0,0x0,0x0,0x0,0x0,0x0,0x8,0x0,0x0,0x0,0x6f,0xfa,0xa1,0x3a,0x1b,0x8f,0xa2,0x3a,0x3d,0xc4,0x9c,0x3a,0x7f,0xef,0xa2,0x3a,0x7c,0xa3,0xa2,0x3a,0x3f,0x29,0xa2,0x3a,0x9e,0x8b,0xa2,0x3a,0x18,0xab,0xa1,0x3a,0x18,0x0,0x0,0x0,0x6d,0x6f,0x64,0x65,0x6c,0x5f,0x34,0x2f,0x63,0x6f,0x6e,0x76,0x32,0x64,0x5f,0x35,0x30,0x2f,0x43,0x6f,0x6e,0x76,0x32,0x44,0x0,0x0,0x0,0x0,0x4,0x0,0x0,0x0,0x8,0x0,0x0,0x0,0x1,0x0,0x0,0x0,0xf,0x0,0x0,0x0,0x8,0x0,0x0,0x0,0xae,0xf9,0xff,0xff,0x0,0x0,0x0,0x1,0x14,0x0,0x0,0x0,0x8,0x2,0x0,0x0,0x6,0x0,0x0,0x0,0x0,0x0,0x0,0x9,0x1c,0x2,0x0,0x0,0xfc,0xf8,0xff,0xff,0x8,0x0,0x0,0x0,0x4c,0x1,0x0,0x0,0x28,0x0,0x0,0x0,0x0,0x0,0x0,0x0,0x0,0x0,0x0,0x0,0x0,0x0,0x0,0x0,0x0,0x0,0x0,0x0,0x0,0x0,0x0,0x0,0x0,0x0,0x0,0x0,0x0,0x0,0x0,0x0,0x0,0x0,0x0,0x0,0x0,0x0,0x0,0x0,0x0,0x0,0x0,0x0,0x0,0x0,0x0,0x0,0x0,0x0,0x0,0x0,0x0,0x0,0x0,0x0,0x0,0x0,0x0,0x0,0x0,0x0,0x0,0x0,0x0,0x0,0x0,0x0,0x0,0x0,0x0,0x0,0x0,0x0,0x0,0x0,0x0,0x0,0x0,0x0,0x0,0x0,0x0,0x0,0x0,0x0,0x0,0x0,0x0,0x0,0x0,0x0,0x0,0x0,0x0,0x0,0x0,0x0,0x0,0x0,0x0,0x0,0x0,0x0,0x0,0x0,0x0,0x0,0x0,0x0,0x0,0x0,0x0,0x0,0x0,0x0,0x0,0x0,0x0,0x0,0x0,0x0,0x0,0x0,0x0,0x0,0x0,0x0,0x0,0x0,0x0,0x0,0x0,0x0,0x0,0x0,0x0,0x0,0x0,0x0,0x0,0x0,0x0,0x0,0x0,0x0,0x0,0x0,0x0,0x0,0x0,0x0,0x0,0x0,0x0,0x0,0x0,0x0,0x0,0x0,0x0,0x0,0x0,0x0,0x0,0x0,0x0,0x0,0x0,0x0,0x0,0x0,0x0,0x0,0x0,0x0,0x0,0x0,0x0,0x0,0x0,0x0,0x0,0x0,0x0,0x0,0x0,0x0,0x0,0x0,0x0,0x0,0x0,0x0,0x0,0x0,0x0,0x0,0x0,0x0,0x0,0x0,0x0,0x0,0x0,0x0,0x0,0x0,0x0,0x0,0x0,0x0,0x0,0x0,0x0,0x0,0x0,0x0,0x0,0x0,0x0,0x0,0x0,0x0,0x0,0x0,0x0,0x0,0x0,0x0,0x0,0x0,0x0,0x0,0x0,0x0,0x0,0x0,0x0,0x0,0x0,0x0,0x0,0x0,0x0,0x0,0x0,0x0,0x0,0x0,0x0,0x0,0x0,0x0,0x0,0x0,0x0,0x0,0x0,0x0,0x0,0x0,0x0,0x0,0x0,0x0,0x0,0x0,0x0,0x0,0x0,0x0,0x0,0x0,0x0,0x0,0x0,0x0,0x0,0x0,0x0,0x0,0x0,0x0,0x0,0x0,0x0,0x0,0x0,0x0,0x0,0x0,0x0,0x0,0x0,0x0,0x0,0x0,0x0,0x0,0x0,0x0,0x0,0x0,0x0,0x0,0x0,0x0,0x0,0x0,0x0,0x0,0x0,0x0,0x0,0x0,0x0,0x0,0x0,0x0,0x0,0x0,0x0,0x0,0x0,0x0,0x0,0x0,0x28,0x0,0x0,0x0,0xc6,0xaa,0xd0,0x3a,0xda,0x67,0xcf,0x3a,0x5d,0x5b,0xcd,0x3a,0x39,0xaf,0xc2,0x3a,0xfe,0xe1,0xca,0x3a,0xe2,0x53,0xcf,0x3a,0x83,0xdd,0xcf,0x3a,0x8,0xe0,0xc2,0x3a,0xb2,0x42,0xbe,0x3a,0xcd,0x6d,0xd2,0x3a,0x59,0xeb,0xc2,0x3a,0x6b,0x49,0xd1,0x3a,0x8f,0xd1,0xc6,0x3a,0xe6,0xc2,0xd1,0x3a,0x91,0x30,0xcc,0x3a,0xf2,0x33,0xce,0x3a,0x80,0x5f,0xcb,0x3a,0x10,0xcb,0xd1,0x3a,0x99,0x1c,0xcb,0x3a,0xc8,0xa6,0xca,0x3a,0x3a,0xdf,0xcf,0x3a,0xc3,0xe2,0xc6,0x3a,0xec,0xe5,0xc9,0x3a,0xaa,0x66,0xc6,0x3a,0x9b,0x99,0xcb,0x3a,0x93,0x88,0xd1,0x3a,0x5f,0x6c,0xd0,0x3a,0xa9,0xda,0xcf,0x3a,0xb7,0x2b,0xcc,0x3a,0x63,0x2a,0xc8,0x3a,0x3f,0x5c,0xd2,0x3a,0xec,0xb4,0xc6,0x3a,0x7f,0x12,0xca,0x3a,0x2c,0x35,0xcf,0x3a,0x5a,0x34,0xcb,0x3a,0x18,0x7f,0xd0,0x3a,0x5f,0xe5,0xb2,0x3a,0x1c,0x18,0xd0,0x3a,0xf0,0xf6,0xc6,0x3a,0xf0,0xc3,0xc4,0x3a,0x18,0x0,0x0,0x0,0x6d,0x6f,0x64,0x65,0x6c,0x5f,0x34,0x2f,0x63,0x6f,0x6e,0x76,0x32,0x64,0x5f,0x35,0x31,0x2f,0x43,0x6f,0x6e,0x76,0x32,0x44,0x0,0x0,0x0,0x0,0x4,0x0,0x0,0x0,0x28,0x0,0x0,0x0,0x3,0x0,0x0,0x0,0x1,0x0,0x0,0x0,0x8,0x0,0x0,0x0,0xf6,0xfb,0xff,0xff,0x0,0x0,0x0,0x1,0x14,0x0,0x0,0x0,0x4,0x2,0x0,0x0,0x5,0x0,0x0,0x0,0x0,0x0,0x0,0x2,0x28,0x2,0x0,0x0,0x44,0xfb,0xff,0xff,0x8,0x0,0x0,0x0,0x48,0x1,0x0,0x0,0x28,0x0,0x0,0x0,0x0,0x0,0x0,0x0,0x0,0x0,0x0,0x0,0x0,0x0,0x0,0x0,0x0,0x0,0x0,0x0,0x0,0x0,0x0,0x0,0x0,0x0,0x0,0x0,0x0,0x0,0x0,0x0,0x0,0x0,0x0,0x0,0x0,0x0,0x0,0x0,0x0,0x0,0x0,0x0,0x0,0x0,0x0,0x0,0x0,0x0,0x0,0x0,0x0,0x0,0x0,0x0,0x0,0x0,0x0,0x0,0x0,0x0,0x0,0x0,0x0,0x0,0x0,0x0,0x0,0x0,0x0,0x0,0x0,0x0,0x0,0x0,0x0,0x0,0x0,0x0,0x0,0x0,0x0,0x0,0x0,0x0,0x0,0x0,0x0,0x0,0x0,0x0,0x0,0x0,0x0,0x0,0x0,0x0,0x0,0x0,0x0,0x0,0x0,0x0,0x0,0x0,0x0,0x0,0x0,0x0,0x0,0x0,0x0,0x0,0x0,0x0,0x0,0x0,0x0,0x0,0x0,0x0,0x0,0x0,0x0,0x0,0x0,0x0,0x0,0x0,0x0,0x0,0x0,0x0,0x0,0x0,0x0,0x0,0x0,0x0,0x0,0x0,0x0,0x0,0x0,0x0,0x0,0x0,0x0,0x0,0x0,0x0,0x0,0x0,0x0,0x0,0x0,0x0,0x0,0x0,0x0,0x0,0x0,0x0,0x0,0x0,0x0,0x0,0x0,0x0,0x0,0x0,0x0,0x0,0x0,0x0,0x0,0x0,0x0,0x0,0x0,0x0,0x0,0x0,0x0,0x0,0x0,0x0,0x0,0x0,0x0,0x0,0x0,0x0,0x0,0x0,0x0,0x0,0x0,0x0,0x0,0x0,0x0,0x0,0x0,0x0,0x0,0x0,0x0,0x0,0x0,0x0,0x0,0x0,0x0,0x0,0x0,0x0,0x0,0x0,0x0,0x0,0x0,0x0,0x0,0x0,0x0,0x0,0x0,0x0,0x0,0x0,0x0,0x0,0x0,0x0,0x0,0x0,0x0,0x0,0x0,0x0,0x0,0x0,0x0,0x0,0x0,0x0,0x0,0x0,0x0,0x0,0x0,0x0,0x0,0x0,0x0,0x0,0x0,0x0,0x0,0x0,0x0,0x0,0x0,0x0,0x0,0x0,0x0,0x0,0x0,0x0,0x0,0x0,0x0,0x0,0x0,0x0,0x0,0x0,0x0,0x0,0x0,0x0,0x0,0x0,0x0,0x0,0x0,0x0,0x0,0x0,0x0,0x0,0x0,0x0,0x0,0x0,0x0,0x0,0x0,0x0,0x0,0x0,0x0,0x0,0x0,0x0,0x0,0x0,0x0,0x0,0x0,0x0,0x0,0x0,0x0,0x0,0x0,0x0,0x0,0x0,0x0,0x0,0x28,0x0,0x0,0x0,0x84,0xb4,0x9d,0x35,0x75,0xc0,0x9c,0x35,0x10,0x34,0x9b,0x35,0x2f,0x23,0x93,0x35,0x61,0x55,0x99,0x35,0x5e,0xb1,0x9c,0x35,0x62,0x19,0x9d,0x35,0x12,0x48,0x93,0x35,0x40,0xcb,0x8f,0x35,0x64,0x9,0x9f,0x35,0xa0,0x50,0x93,0x35,0x6a,0x2c,0x9e,0x35,0xc,0x43,0x96,0x35,0x3a,0x88,0x9e,0x35,0x3e,0x52,0x9a,0x35,0xc0,0xd7,0x9b,0x35,0x3c,0xb4,0x99,0x35,0x65,0x8e,0x9e,0x35,0xac,0x81,0x99,0x35,0xa1,0x28,0x99,0x35,0xae,0x1a,0x9d,0x35,0xc,0x50,0x96,0x35,0xdf,0x96,0x98,0x35,0x42,0xf2,0x95,0x35,0x26,0xe0,0x99,0x35,0x25,0x5c,0x9e,0x35,0x5a,0x85,0x9d,0x35,0x3a,0x17,0x9d,0x35,0x93,0x4e,0x9a,0x35,0xa9,0x47,0x97,0x35,0x1f,0xfc,0x9e,0x35,0x67,0x2d,0x96,0x35,0x8f,0xb8,0x98,0x35,0x28,0x9a,0x9c,0x35,0xa0,0x93,0x99,0x35,0x81,0x93,0x9d,0x35,0x75,0x34,0x87,0x35,0xac,0x45,0x9d,0x35,0x4c,0x5f,0x96,0x35,0xcc,0xb5,0x94,0x35,0x28,0x0,0x0,0x0,0x6d,0x6f,0x64,0x65,0x6c,0x5f,0x34,0x2f,0x63,0x6f,0x6e,0x76,0x32,0x64,0x5f,0x35,0x31,0x2f,0x42,0x69,0x61,0x73,0x41,0x64,0x64,0x2f,0x52,0x65,0x61,0x64,0x56,0x61,0x72,0x69,0x61,0x62,0x6c,0x65,0x4f,0x70,0x0,0x0,0x0,0x0,0x1,0x0,0x0,0x0,0x28,0x0,0x0,0x0,0x3e,0xfe,0xff,0xff,0x0,0x0,0x0,0x1,0x14,0x0,0x0,0x0,0xa0,0x0,0x0,0x0,0x4,0x0,0x0,0x0,0x0,0x0,0x0,0x9,0xb4,0x0,0x0,0x0,0x8c,0xfd,0xff,0xff,0x8,0x0,0x0,0x0,0x5c,0x0,0x0,0x0,0xa,0x0,0x0,0x0,0x0,0x0,0x0,0x0,0x0,0x0,0x0,0x0,0x0,0x0,0x0,0x0,0x0,0x0,0x0,0x0,0x0,0x0,0x0,0x0,0x0,0x0,0x0,0x0,0x0,0x0,0x0,0x0,0x0,0x0,0x0,0x0,0x0,0x0,0x0,0x0,0x0,0x0,0x0,0x0,0x0,0x0,0x0,0x0,0x0,0x0,0x0,0x0,0x0,0x0,0x0,0x0,0x0,0x0,0x0,0x0,0x0,0x0,0x0,0x0,0x0,0x0,0x0,0x0,0x0,0x0,0x0,0x0,0x0,0x0,0x0,0x0,0x0,0x0,0x0,0x0,0x0,0x0,0x0,0x0,0x0,0x0,0x0,0x0,0xa,0x0,0x0,0x0,0x21,0xeb,0x31,0x3b,0x38,0x6c,0x2d,0x3b,0x23,0x3f,0x31,0x3b,0x53,0xa8,0x30,0x3b,0xde,0xc8,0x29,0x3b,0x70,0xfd,0x31,0x3b,0x4d,0xf6,0x22,0x3b,0xde,0xbe,0x2f,0x3b,0xfa,0x37,0x30,0x3b,0x38,0x1d,0x32,0x3b,0x18,0x0,0x0,0x0,0x6d,0x6f,0x64,0x65,0x6c,0x5f,0x34,0x2f,0x63,0x6f,0x6e,0x76,0x32,0x64,0x5f,0x35,0x34,0x2f,0x43,0x6f,0x6e,0x76,0x32,0x44,0x0,0x0,0x0,0x0,0x4,0x0,0x0,0x0,0xa,0x0,0x0,0x0,0x1,0x0,0x0,0x0,0x1,0x0,0x0,0x0,0x28,0x0,0x0,0x0,0x1e,0xff,0xff,0xff,0x0,0x0,0x0,0x1,0x14,0x0,0x0,0x0,0x9c,0x0,0x0,0x0,0x3,0x0,0x0,0x0,0x0,0x0,0x0,0x2,0xc0,0x0,0x0,0x0,0x6c,0xfe,0xff,0xff,0x8,0x0,0x0,0x0,0x58,0x0,0x0,0x0,0xa,0x0,0x0,0x0,0x0,0x0,0x0,0x0,0x0,0x0,0x0,0x0,0x0,0x0,0x0,0x0,0x0,0x0,0x0,0x0,0x0,0x0,0x0,0x0,0x0,0x0,0x0,0x0,0x0,0x0,0x0,0x0,0x0,0x0,0x0,0x0,0x0,0x0,0x0,0x0,0x0,0x0,0x0,0x0,0x0,0x0,0x0,0x0,0x0,0x0,0x0,0x0,0x0,0x0,0x0,0x0,0x0,0x0,0x0,0x0,0x0,0x0,0x0,0x0,0x0,0x0,0x0,0x0,0x0,0x0,0x0,0x0,0x0,0x0,0x0,0x0,0x0,0x0,0x0,0x0,0x0,0x0,0x0,0x0,0xa,0x0,0x0,0x0,0x23,0xde,0xb1,0x35,0x8e,0x5f,0xad,0x35,0x31,0x32,0xb1,0x35,0x6c,0x9b,0xb0,0x35,0x78,0xbc,0xa9,0x35,0x70,0xf0,0xb1,0x35,0x66,0xea,0xa2,0x35,0x8,0xb2,0xaf,0x35,0x1c,0x2b,0xb0,0x35,0x36,0x10,0xb2,0x35,0x28,0x0,0x0,0x0,0x6d,0x6f,0x64,0x65,0x6c,0x5f,0x34,0x2f,0x63,0x6f,0x6e,0x76,0x32,0x64,0x5f,0x35,0x34,0x2f,0x42,0x69,0x61,0x73,0x41,0x64,0x64,0x2f,0x52,0x65,0x61,0x64,0x56,0x61,0x72,0x69,0x61,0x62,0x6c,0x65,0x4f,0x70,0x0,0x0,0x0,0x0,0x1,0x0,0x0,0x0,0xa,0x0,0x0,0x0,0x0,0x0,0x16,0x0,0x1c,0x0,0x18,0x0,0x17,0x0,0x10,0x0,0xc,0x0,0x8,0x0,0x0,0x0,0x0,0x0,0x0,0x0,0x7,0x0,0x16,0x0,0x0,0x0,0x0,0x0,0x0,0x1,0x18,0x0,0x0,0x0,0x18,0x0,0x0,0x0,0x2,0x0,0x0,0x0,0x0,0x0,0x0,0x2,0x4c,0x0,0x0,0x0,0x4,0x0,0x4,0x0,0x4,0x0,0x0,0x0,0x39,0x0,0x0,0x0,0x6d,0x6f,0x64,0x65,0x6c,0x5f,0x34,0x2f,0x67,0x6c,0x6f,0x62,0x61,0x6c,0x5f,0x61,0x76,0x65,0x72,0x61,0x67,0x65,0x5f,0x70,0x6f,0x6f,0x6c,0x69,0x6e,0x67,0x32,0x64,0x5f,0x34,0x2f,0x4d,0x65,0x61,0x6e,0x2f,0x72,0x65,0x64,0x75,0x63,0x74,0x69,0x6f,0x6e,0x5f,0x69,0x6e,0x64,0x69,0x63,0x65,0x73,0x0,0x0,0x0,0x1,0x0,0x0,0x0,0x2,0x0,0x0,0x0,0x0,0x0,0x16,0x0,0x20,0x0,0x1c,0x0,0x1b,0x0,0x14,0x0,0x10,0x0,0xc,0x0,0x0,0x0,0x0,0x0,0x8,0x0,0x7,0x0,0x16,0x0,0x0,0x0,0x0,0x0,0x0,0x1,0x18,0x0,0x0,0x0,0x34,0x0,0x0,0x0,0x50,0x0,0x0,0x0,0x1,0x0,0x0,0x0,0x0,0x0,0x0,0x9,0x64,0x0,0x0,0x0,0x4,0x0,0x0,0x0,0xff,0xff,0xff,0xff,0x40,0x0,0x0,0x0,0x1e,0x0,0x0,0x0,0x1,0x0,0x0,0x0,0xc,0x0,0xc,0x0,0x0,0x0,0x0,0x0,0x8,0x0,0x4,0x0,0xc,0x0,0x0,0x0,0x8,0x0,0x0,0x0,0x10,0x0,0x0,0x0,0x1,0x0,0x0,0x0,0x80,0xff,0xff,0xff,0xff,0xff,0xff,0xff,0x1,0x0,0x0,0x0,0x43,0x80,0x80,0x3b,0x19,0x0,0x0,0x0,0x73,0x65,0x72,0x76,0x69,0x6e,0x67,0x5f,0x64,0x65,0x66,0x61,0x75,0x6c,0x74,0x5f,0x69,0x6e,0x70,0x75,0x74,0x5f,0x35,0x3a,0x30,0x0,0x0,0x0,0x4,0x0,0x0,0x0,0x1,0x0,0x0,0x0,0x40,0x0,0x0,0x0,0x1e,0x0,0x0,0x0,0x1,0x0,0x0,0x0,0x3,0x0,0x0,0x0,0x38,0x0,0x0,0x0,0x18,0x0,0x0,0x0,0x4,0x0,0x0,0x0,0xe0,0xff,0xff,0xff,0x19,0x0,0x0,0x0,0x2,0x0,0x0,0x0,0x0,0x0,0x0,0x19,0xf0,0xff,0xff,0xff,0x28,0x0,0x0,0x0,0x2,0x0,0x0,0x0,0x0,0x0,0x0,0x28,0xc,0x0,0x10,0x0,0xf,0x0,0x0,0x0,0x8,0x0,0x4,0x0,0xc,0x0,0x0,0x0,0x3,0x0,0x0,0x0,0x3,0x0,0x0,0x0,0x0,0x0,0x0,0x3 
 };
unsigned int model_gen_len = 9120;