alignas(8) const unsigned char PROGMEM model_gen[] = { 
 0x20,0x0,0x0,0x0,0x54,0x46,0x4c,0x33,0x0,0x0,0x0,0x0,0x14,0x0,0x20,0x0,0x1c,0x0,0x18,0x0,0x14,0x0,0x10,0x0,0xc,0x0,0x0,0x0,0x8,0x0,0x4,0x0,0x14,0x0,0x0,0x0,0x1c,0x0,0x0,0x0,0x9c,0x0,0x0,0x0,0x1c,0x1,0x0,0x0,0xf8,0x2,0x0,0x0,0x8,0x3,0x0,0x0,0x44,0x6,0x0,0x0,0x3,0x0,0x0,0x0,0x1,0x0,0x0,0x0,0x10,0x0,0x0,0x0,0x0,0x0,0xa,0x0,0x10,0x0,0xc,0x0,0x8,0x0,0x4,0x0,0xa,0x0,0x0,0x0,0xc,0x0,0x0,0x0,0x1c,0x0,0x0,0x0,0x3c,0x0,0x0,0x0,0xf,0x0,0x0,0x0,0x73,0x65,0x72,0x76,0x69,0x6e,0x67,0x5f,0x64,0x65,0x66,0x61,0x75,0x6c,0x74,0x0,0x1,0x0,0x0,0x0,0x4,0x0,0x0,0x0,0x64,0xff,0xff,0xff,0x3,0x0,0x0,0x0,0x4,0x0,0x0,0x0,0x8,0x0,0x0,0x0,0x6f,0x75,0x74,0x70,0x75,0x74,0x5f,0x30,0x0,0x0,0x0,0x0,0x1,0x0,0x0,0x0,0x4,0x0,0x0,0x0,0xba,0xfd,0xff,0xff,0x4,0x0,0x0,0x0,0x10,0x0,0x0,0x0,0x6b,0x65,0x72,0x61,0x73,0x5f,0x74,0x65,0x6e,0x73,0x6f,0x72,0x5f,0x35,0x30,0x30,0x0,0x0,0x0,0x0,0x3,0x0,0x0,0x0,0x5c,0x0,0x0,0x0,0x2c,0x0,0x0,0x0,0x4,0x0,0x0,0x0,0xb8,0xff,0xff,0xff,0x7,0x0,0x0,0x0,0x4,0x0,0x0,0x0,0x13,0x0,0x0,0x0,0x43,0x4f,0x4e,0x56,0x45,0x52,0x53,0x49,0x4f,0x4e,0x5f,0x4d,0x45,0x54,0x41,0x44,0x41,0x54,0x41,0x0,0xdc,0xff,0xff,0xff,0x6,0x0,0x0,0x0,0x4,0x0,0x0,0x0,0x13,0x0,0x0,0x0,0x6d,0x69,0x6e,0x5f,0x72,0x75,0x6e,0x74,0x69,0x6d,0x65,0x5f,0x76,0x65,0x72,0x73,0x69,0x6f,0x6e,0x0,0x8,0x0,0xc,0x0,0x8,0x0,0x4,0x0,0x8,0x0,0x0,0x0,0x5,0x0,0x0,0x0,0x4,0x0,0x0,0x0,0x13,0x0,0x0,0x0,0x6d,0x69,0x6e,0x5f,0x72,0x75,0x6e,0x74,0x69,0x6d,0x65,0x5f,0x76,0x65,0x72,0x73,0x69,0x6f,0x6e,0x0,0x8,0x0,0x0,0x0,0xd8,0x1,0x0,0x0,0xcc,0x1,0x0,0x0,0x9c,0x1,0x0,0x0,0xbc,0x0,0x0,0x0,0xb4,0x0,0x0,0x0,0x94,0x0,0x0,0x0,0x74,0x0,0x0,0x0,0x4,0x0,0x0,0x0,0x82,0xfe,0xff,0xff,0x4,0x0,0x0,0x0,0x60,0x0,0x0,0x0,0xc,0x0,0x0,0x0,0x8,0x0,0xe,0x0,0x8,0x0,0x4,0x0,0x8,0x0,0x0,0x0,0x10,0x0,0x0,0x0,0x28,0x0,0x0,0x0,0x0,0x0,0x6,0x0,0x8,0x0,0x4,0x0,0x6,0x0,0x0,0x0,0x4,0x0,0x0,0x0,0x1,0x0,0x0,0x0,0xeb,0x3,0x0,0x0,0xc,0x0,0x18,0x0,0x14,0x0,0x10,0x0,0xc,0x0,0x4,0x0,0xc,0x0,0x0,0x0,0x81,0xb3,0x66,0xee,0x8d,0x24,0x2d,0x35,0x2,0x0,0x0,0x0,0x2,0x0,0x0,0x0,0x4,0x0,0x0,0x0,0x6,0x0,0x0,0x0,0x32,0x2e,0x31,0x37,0x2e,0x30,0x0,0x0,0xee,0xfe,0xff,0xff,0x4,0x0,0x0,0x0,0x10,0x0,0x0,0x0,0x0,0x0,0x0,0x0,0x0,0x0,0x0,0x0,0x0,0x0,0x0,0x0,0x0,0x0,0x0,0x0,0xa,0xff,0xff,0xff,0x4,0x0,0x0,0x0,0x10,0x0,0x0,0x0,0x31,0x2e,0x31,0x34,0x2e,0x30,0x0,0x0,0x0,0x0,0x0,0x0,0x0,0x0,0x0,0x0,0xf0,0xfe,0xff,0xff,0x2a,0xff,0xff,0xff,0x4,0x0,0x0,0x0,0xc8,0x0,0x0,0x0,0x81,0xfe,0xbd,0x26,0xf5,0xee,0x45,0x44,0x2d,0xfd,0x42,0x90,0x9c,0x10,0x5c,0xe0,0x18,0x72,0xdb,0x6a,0xc2,0xe0,0xa8,0x5e,0xc0,0x65,0xc2,0xef,0xc,0xd4,0xb3,0x7c,0xf6,0xf,0xea,0x19,0x7d,0x21,0xc2,0x2d,0x50,0xca,0xc8,0xf5,0x2f,0x81,0xe,0xc0,0x61,0x6,0x53,0x20,0xc0,0x34,0xb7,0x66,0xd6,0xc8,0x88,0xae,0x6,0x87,0xb9,0xe6,0x7f,0xea,0x77,0xab,0x7b,0x65,0x47,0x3a,0x0,0xe0,0xf6,0x17,0x2d,0x47,0x72,0x62,0x6e,0xaa,0x26,0xf4,0x6c,0x42,0x16,0xe2,0xd7,0x47,0x29,0x65,0x81,0x79,0xfb,0x46,0x90,0xe8,0xfc,0xa0,0x22,0xba,0x81,0xd3,0x6,0x4c,0x3b,0xfb,0x3b,0xbf,0x52,0xd4,0xf5,0x5f,0x21,0x55,0x6b,0xae,0x13,0xac,0x5,0x84,0x3b,0x20,0xfd,0x73,0x7f,0x40,0xa5,0x19,0x6d,0x5a,0xf8,0x85,0xde,0x8b,0x42,0x2c,0xa6,0xbe,0xe8,0x8d,0x95,0x8c,0x75,0x9c,0xd8,0xdc,0x5f,0x18,0x83,0xba,0x18,0xfd,0xb1,0xbb,0x2c,0x9e,0xf9,0xd4,0xd4,0x26,0xe9,0x7f,0xb1,0xe2,0x82,0xe8,0xa4,0x73,0x90,0x87,0xd9,0xe6,0x24,0x9f,0x25,0x7,0xbd,0xf9,0xf1,0xff,0x3a,0x91,0x97,0xb,0x3e,0xb4,0xf3,0xff,0x3f,0x92,0xa6,0xe7,0x7f,0xd1,0x4a,0x8e,0xfd,0x54,0x0,0x0,0x6,0x0,0x8,0x0,0x4,0x0,0x6,0x0,0x0,0x0,0x4,0x0,0x0,0x0,0x20,0x0,0x0,0x0,0x0,0x0,0x0,0x0,0x0,0x0,0x0,0x0,0x0,0x0,0x0,0x0,0x0,0x0,0x0,0x0,0x0,0x0,0x0,0x0,0x0,0x0,0x0,0x0,0x0,0x0,0x0,0x0,0x0,0x0,0x0,0x0,0xfc,0xff,0xff,0xff,0x4,0x0,0x4,0x0,0x4,0x0,0x0,0x0,0xf,0x0,0x0,0x0,0x4d,0x4c,0x49,0x52,0x20,0x43,0x6f,0x6e,0x76,0x65,0x72,0x74,0x65,0x64,0x2e,0x0,0x1,0x0,0x0,0x0,0x14,0x0,0x0,0x0,0x0,0x0,0xe,0x0,0x18,0x0,0x14,0x0,0x10,0x0,0xc,0x0,0x8,0x0,0x4,0x0,0xe,0x0,0x0,0x0,0x14,0x0,0x0,0x0,0x1c,0x0,0x0,0x0,0x78,0x0,0x0,0x0,0x7c,0x0,0x0,0x0,0x80,0x0,0x0,0x0,0x4,0x0,0x0,0x0,0x6d,0x61,0x69,0x6e,0x0,0x0,0x0,0x0,0x1,0x0,0x0,0x0,0x14,0x0,0x0,0x0,0x0,0x0,0xe,0x0,0x14,0x0,0x0,0x0,0x10,0x0,0xc,0x0,0xb,0x0,0x4,0x0,0xe,0x0,0x0,0x0,0x1c,0x0,0x0,0x0,0x0,0x0,0x0,0x1,0x24,0x0,0x0,0x0,0x28,0x0,0x0,0x0,0xc,0x0,0x10,0x0,0x0,0x0,0xc,0x0,0x8,0x0,0x7,0x0,0xc,0x0,0x0,0x0,0x0,0x0,0x0,0x1,0x1,0x0,0x0,0x0,0x1,0x0,0x0,0x0,0x1,0x0,0x0,0x0,0x3,0x0,0x0,0x0,0x3,0x0,0x0,0x0,0x0,0x0,0x0,0x0,0x2,0x0,0x0,0x0,0x1,0x0,0x0,0x0,0x1,0x0,0x0,0x0,0x3,0x0,0x0,0x0,0x1,0x0,0x0,0x0,0x0,0x0,0x0,0x0,0x4,0x0,0x0,0x0,0xc,0x2,0x0,0x0,0x3c,0x1,0x0,0x0,0x78,0x0,0x0,0x0,0x4,0x0,0x0,0x0,0x1a,0xfe,0xff,0xff,0x0,0x0,0x0,0x1,0x14,0x0,0x0,0x0,0x30,0x0,0x0,0x0,0x4,0x0,0x0,0x0,0x0,0x0,0x0,0x9,0x44,0x0,0x0,0x0,0x4,0xfe,0xff,0xff,0x8,0x0,0x0,0x0,0x10,0x0,0x0,0x0,0x1,0x0,0x0,0x0,0x80,0xff,0xff,0xff,0xff,0xff,0xff,0xff,0x1,0x0,0x0,0x0,0x67,0xcb,0xb0,0x3b,0x1b,0x0,0x0,0x0,0x53,0x74,0x61,0x74,0x65,0x66,0x75,0x6c,0x50,0x61,0x72,0x74,0x69,0x74,0x69,0x6f,0x6e,0x65,0x64,0x43,0x61,0x6c,0x6c,0x5f,0x31,0x3a,0x30,0x0,0x4,0x0,0x0,0x0,0x1,0x0,0x0,0x0,0x10,0x0,0x0,0x0,0xf,0x0,0x0,0x0,0x8,0x0,0x0,0x0,0x8a,0xfe,0xff,0xff,0x0,0x0,0x0,0x1,0x14,0x0,0x0,0x0,0x88,0x0,0x0,0x0,0x3,0x0,0x0,0x0,0x0,0x0,0x0,0x9,0x94,0x0,0x0,0x0,0x74,0xfe,0xff,0xff,0x8,0x0,0x0,0x0,0x4c,0x0,0x0,0x0,0x8,0x0,0x0,0x0,0x0,0x0,0x0,0x0,0x0,0x0,0x0,0x0,0x0,0x0,0x0,0x0,0x0,0x0,0x0,0x0,0x0,0x0,0x0,0x0,0x0,0x0,0x0,0x0,0x0,0x0,0x0,0x0,0x0,0x0,0x0,0x0,0x0,0x0,0x0,0x0,0x0,0x0,0x0,0x0,0x0,0x0,0x0,0x0,0x0,0x0,0x0,0x0,0x0,0x0,0x0,0x0,0x0,0x0,0x0,0x0,0x0,0x0,0x0,0x0,0x0,0x0,0x0,0x0,0x0,0x0,0x0,0x0,0x8,0x0,0x0,0x0,0x73,0x30,0x19,0x3b,0x8b,0x73,0x16,0x3b,0x4f,0x42,0x17,0x3b,0xe6,0x68,0x13,0x3b,0x58,0x8e,0x1c,0x3b,0x83,0x48,0x18,0x3b,0xc4,0x6,0x15,0x3b,0x71,0x95,0x1c,0x3b,0x12,0x0,0x0,0x0,0x74,0x66,0x6c,0x2e,0x70,0x73,0x65,0x75,0x64,0x6f,0x5f,0x71,0x63,0x6f,0x6e,0x73,0x74,0x31,0x0,0x0,0x4,0x0,0x0,0x0,0x8,0x0,0x0,0x0,0x5,0x0,0x0,0x0,0x1,0x0,0x0,0x0,0x5,0x0,0x0,0x0,0x4a,0xff,0xff,0xff,0x0,0x0,0x0,0x1,0x14,0x0,0x0,0x0,0x88,0x0,0x0,0x0,0x2,0x0,0x0,0x0,0x0,0x0,0x0,0x2,0x94,0x0,0x0,0x0,0x34,0xff,0xff,0xff,0x8,0x0,0x0,0x0,0x4c,0x0,0x0,0x0,0x8,0x0,0x0,0x0,0x0,0x0,0x0,0x0,0x0,0x0,0x0,0x0,0x0,0x0,0x0,0x0,0x0,0x0,0x0,0x0,0x0,0x0,0x0,0x0,0x0,0x0,0x0,0x0,0x0,0x0,0x0,0x0,0x0,0x0,0x0,0x0,0x0,0x0,0x0,0x0,0x0,0x0,0x0,0x0,0x0,0x0,0x0,0x0,0x0,0x0,0x0,0x0,0x0,0x0,0x0,0x0,0x0,0x0,0x0,0x0,0x0,0x0,0x0,0x0,0x0,0x0,0x0,0x0,0x0,0x0,0x0,0x0,0x8,0x0,0x0,0x0,0x9d,0xc8,0x19,0x37,0xfd,0x8,0x17,0x37,0x8f,0xd8,0x17,0x37,0x53,0xfb,0x13,0x37,0xda,0x29,0x1d,0x37,0xc7,0xdf,0x18,0x37,0xcc,0x9a,0x15,0x37,0xfb,0x30,0x1d,0x37,0x11,0x0,0x0,0x0,0x74,0x66,0x6c,0x2e,0x70,0x73,0x65,0x75,0x64,0x6f,0x5f,0x71,0x63,0x6f,0x6e,0x73,0x74,0x0,0x0,0x0,0x1,0x0,0x0,0x0,0x8,0x0,0x0,0x0,0x0,0x0,0x16,0x0,0x1c,0x0,0x18,0x0,0x17,0x0,0x10,0x0,0xc,0x0,0x8,0x0,0x0,0x0,0x0,0x0,0x0,0x0,0x7,0x0,0x16,0x0,0x0,0x0,0x0,0x0,0x0,0x1,0x20,0x0,0x0,0x0,0x3c,0x0,0x0,0x0,0x1,0x0,0x0,0x0,0x0,0x0,0x0,0x9,0x58,0x0,0x0,0x0,0xc,0x0,0xc,0x0,0x0,0x0,0x0,0x0,0x8,0x0,0x4,0x0,0xc,0x0,0x0,0x0,0x8,0x0,0x0,0x0,0x10,0x0,0x0,0x0,0x1,0x0,0x0,0x0,0x80,0xff,0xff,0xff,0xff,0xff,0xff,0xff,0x1,0x0,0x0,0x0,0x25,0x7f,0x80,0x3b,0x22,0x0,0x0,0x0,0x73,0x65,0x72,0x76,0x69,0x6e,0x67,0x5f,0x64,0x65,0x66,0x61,0x75,0x6c,0x74,0x5f,0x6b,0x65,0x72,0x61,0x73,0x5f,0x74,0x65,0x6e,0x73,0x6f,0x72,0x5f,0x35,0x30,0x30,0x3a,0x30,0x0,0x0,0x4,0x0,0x0,0x0,0x1,0x0,0x0,0x0,0x10,0x0,0x0,0x0,0xf,0x0,0x0,0x0,0x5,0x0,0x0,0x0,0x1,0x0,0x0,0x0,0x10,0x0,0x0,0x0,0xc,0x0,0x10,0x0,0xf,0x0,0x0,0x0,0x8,0x0,0x4,0x0,0xc,0x0,0x0,0x0,0x3,0x0,0x0,0x0,0x3,0x0,0x0,0x0,0x0,0x0,0x0,0x3 
 };
unsigned int model_gen_len = 1696;