alignas(8) const unsigned char PROGMEM model_gen[] = { 
 0x1c,0x0,0x0,0x0,0x54,0x46,0x4c,0x33,0x14,0x0,0x20,0x0,0x1c,0x0,0x18,0x0,0x14,0x0,0x10,0x0,0xc,0x0,0x0,0x0,0x8,0x0,0x4,0x0,0x14,0x0,0x0,0x0,0x1c,0x0,0x0,0x0,0x9c,0x0,0x0,0x0,0x1c,0x1,0x0,0x0,0xcc,0x2,0x0,0x0,0xdc,0x2,0x0,0x0,0x48,0x6,0x0,0x0,0x3,0x0,0x0,0x0,0x1,0x0,0x0,0x0,0x10,0x0,0x0,0x0,0x0,0x0,0xa,0x0,0x10,0x0,0xc,0x0,0x8,0x0,0x4,0x0,0xa,0x0,0x0,0x0,0xc,0x0,0x0,0x0,0x1c,0x0,0x0,0x0,0x3c,0x0,0x0,0x0,0xf,0x0,0x0,0x0,0x73,0x65,0x72,0x76,0x69,0x6e,0x67,0x5f,0x64,0x65,0x66,0x61,0x75,0x6c,0x74,0x0,0x1,0x0,0x0,0x0,0x4,0x0,0x0,0x0,0x64,0xff,0xff,0xff,0x3,0x0,0x0,0x0,0x4,0x0,0x0,0x0,0x8,0x0,0x0,0x0,0x6f,0x75,0x74,0x70,0x75,0x74,0x5f,0x30,0x0,0x0,0x0,0x0,0x1,0x0,0x0,0x0,0x4,0x0,0x0,0x0,0xee,0xfd,0xff,0xff,0x4,0x0,0x0,0x0,0x11,0x0,0x0,0x0,0x6b,0x65,0x72,0x61,0x73,0x5f,0x74,0x65,0x6e,0x73,0x6f,0x72,0x5f,0x34,0x30,0x37,0x30,0x0,0x0,0x0,0x3,0x0,0x0,0x0,0x5c,0x0,0x0,0x0,0x2c,0x0,0x0,0x0,0x4,0x0,0x0,0x0,0xb8,0xff,0xff,0xff,0x7,0x0,0x0,0x0,0x4,0x0,0x0,0x0,0x13,0x0,0x0,0x0,0x43,0x4f,0x4e,0x56,0x45,0x52,0x53,0x49,0x4f,0x4e,0x5f,0x4d,0x45,0x54,0x41,0x44,0x41,0x54,0x41,0x0,0xdc,0xff,0xff,0xff,0x6,0x0,0x0,0x0,0x4,0x0,0x0,0x0,0x13,0x0,0x0,0x0,0x6d,0x69,0x6e,0x5f,0x72,0x75,0x6e,0x74,0x69,0x6d,0x65,0x5f,0x76,0x65,0x72,0x73,0x69,0x6f,0x6e,0x0,0x8,0x0,0xc,0x0,0x8,0x0,0x4,0x0,0x8,0x0,0x0,0x0,0x5,0x0,0x0,0x0,0x4,0x0,0x0,0x0,0x13,0x0,0x0,0x0,0x6d,0x69,0x6e,0x5f,0x72,0x75,0x6e,0x74,0x69,0x6d,0x65,0x5f,0x76,0x65,0x72,0x73,0x69,0x6f,0x6e,0x0,0x8,0x0,0x0,0x0,0xac,0x1,0x0,0x0,0xa0,0x1,0x0,0x0,0x68,0x1,0x0,0x0,0xbc,0x0,0x0,0x0,0xb4,0x0,0x0,0x0,0x94,0x0,0x0,0x0,0x74,0x0,0x0,0x0,0x4,0x0,0x0,0x0,0xb6,0xfe,0xff,0xff,0x4,0x0,0x0,0x0,0x60,0x0,0x0,0x0,0xc,0x0,0x0,0x0,0x8,0x0,0xe,0x0,0x8,0x0,0x4,0x0,0x8,0x0,0x0,0x0,0x10,0x0,0x0,0x0,0x28,0x0,0x0,0x0,0x0,0x0,0x6,0x0,0x8,0x0,0x4,0x0,0x6,0x0,0x0,0x0,0x4,0x0,0x0,0x0,0x1,0x0,0x0,0x0,0xeb,0x3,0x0,0x0,0xc,0x0,0x18,0x0,0x14,0x0,0x10,0x0,0xc,0x0,0x4,0x0,0xc,0x0,0x0,0x0,0x81,0xf3,0xa6,0x4d,0x74,0x11,0xeb,0x4d,0x2,0x0,0x0,0x0,0x2,0x0,0x0,0x0,0x4,0x0,0x0,0x0,0x6,0x0,0x0,0x0,0x32,0x2e,0x31,0x37,0x2e,0x30,0x0,0x0,0x22,0xff,0xff,0xff,0x4,0x0,0x0,0x0,0x10,0x0,0x0,0x0,0x0,0x0,0x0,0x0,0x0,0x0,0x0,0x0,0x0,0x0,0x0,0x0,0x0,0x0,0x0,0x0,0x3e,0xff,0xff,0xff,0x4,0x0,0x0,0x0,0x10,0x0,0x0,0x0,0x31,0x2e,0x31,0x34,0x2e,0x30,0x0,0x0,0x0,0x0,0x0,0x0,0x0,0x0,0x0,0x0,0x1c,0xff,0xff,0xff,0x5e,0xff,0xff,0xff,0x4,0x0,0x0,0x0,0x96,0x0,0x0,0x0,0x50,0x19,0xff,0x1d,0x89,0x3b,0xf0,0xf5,0xc8,0x32,0x45,0xb7,0x83,0x19,0x7f,0xef,0xe,0xb0,0x55,0x5a,0xbe,0x32,0x8f,0xc9,0x94,0x66,0x81,0x95,0x42,0xec,0x2c,0x20,0x45,0xad,0xa5,0x81,0xab,0x9e,0xd1,0xd4,0x35,0x16,0x9e,0x1f,0xb0,0x8c,0xc7,0x9f,0x5f,0x9d,0x91,0xff,0x16,0xc8,0xd3,0xf,0xbf,0xc5,0x52,0x81,0x83,0x8f,0x36,0xe,0x7f,0x75,0x1b,0x95,0xd1,0xa4,0x26,0x25,0xb1,0x52,0x1d,0x9,0x2a,0x7,0xa4,0x15,0xae,0x8b,0x62,0xc,0xc,0x75,0x82,0x7f,0x2,0xa6,0xc4,0x6a,0x25,0x5,0xcf,0x64,0xee,0x8b,0x5,0x5d,0xf5,0x26,0x5a,0x81,0xa6,0x12,0x7d,0x35,0x9c,0x5,0x25,0x66,0xc3,0x7c,0xa8,0x8c,0x11,0x81,0x18,0x62,0xa5,0x12,0x49,0xf0,0x7f,0x16,0xa3,0xb8,0x2f,0x9c,0x48,0x5c,0x97,0xa1,0xc2,0xe8,0x69,0xb1,0xea,0x4b,0x82,0x1c,0x82,0x5b,0xe4,0xb2,0x5c,0x81,0xc7,0xa2,0x6,0x0,0x8,0x0,0x4,0x0,0x6,0x0,0x0,0x0,0x4,0x0,0x0,0x0,0x28,0x0,0x0,0x0,0x0,0x0,0x0,0x0,0x0,0x0,0x0,0x0,0x0,0x0,0x0,0x0,0x0,0x0,0x0,0x0,0x0,0x0,0x0,0x0,0x0,0x0,0x0,0x0,0x0,0x0,0x0,0x0,0x0,0x0,0x0,0x0,0x0,0x0,0x0,0x0,0x0,0x0,0x0,0x0,0xfc,0xff,0xff,0xff,0x4,0x0,0x4,0x0,0x4,0x0,0x0,0x0,0xf,0x0,0x0,0x0,0x4d,0x4c,0x49,0x52,0x20,0x43,0x6f,0x6e,0x76,0x65,0x72,0x74,0x65,0x64,0x2e,0x0,0x1,0x0,0x0,0x0,0x14,0x0,0x0,0x0,0x0,0x0,0xe,0x0,0x18,0x0,0x14,0x0,0x10,0x0,0xc,0x0,0x8,0x0,0x4,0x0,0xe,0x0,0x0,0x0,0x14,0x0,0x0,0x0,0x1c,0x0,0x0,0x0,0x78,0x0,0x0,0x0,0x7c,0x0,0x0,0x0,0x80,0x0,0x0,0x0,0x4,0x0,0x0,0x0,0x6d,0x61,0x69,0x6e,0x0,0x0,0x0,0x0,0x1,0x0,0x0,0x0,0x14,0x0,0x0,0x0,0x0,0x0,0xe,0x0,0x14,0x0,0x0,0x0,0x10,0x0,0xc,0x0,0xb,0x0,0x4,0x0,0xe,0x0,0x0,0x0,0x1c,0x0,0x0,0x0,0x0,0x0,0x0,0x1,0x24,0x0,0x0,0x0,0x28,0x0,0x0,0x0,0xc,0x0,0x10,0x0,0x0,0x0,0xc,0x0,0x8,0x0,0x7,0x0,0xc,0x0,0x0,0x0,0x0,0x0,0x0,0x1,0x1,0x0,0x0,0x0,0x1,0x0,0x0,0x0,0x1,0x0,0x0,0x0,0x3,0x0,0x0,0x0,0x3,0x0,0x0,0x0,0x0,0x0,0x0,0x0,0x2,0x0,0x0,0x0,0x1,0x0,0x0,0x0,0x1,0x0,0x0,0x0,0x3,0x0,0x0,0x0,0x1,0x0,0x0,0x0,0x0,0x0,0x0,0x0,0x4,0x0,0x0,0x0,0x3c,0x2,0x0,0x0,0x54,0x1,0x0,0x0,0x78,0x0,0x0,0x0,0x4,0x0,0x0,0x0,0xea,0xfd,0xff,0xff,0x0,0x0,0x0,0x1,0x14,0x0,0x0,0x0,0x30,0x0,0x0,0x0,0x4,0x0,0x0,0x0,0x0,0x0,0x0,0x9,0x44,0x0,0x0,0x0,0xd4,0xfd,0xff,0xff,0x8,0x0,0x0,0x0,0x10,0x0,0x0,0x0,0x1,0x0,0x0,0x0,0x80,0xff,0xff,0xff,0xff,0xff,0xff,0xff,0x1,0x0,0x0,0x0,0x86,0xa1,0x9c,0x3b,0x1b,0x0,0x0,0x0,0x53,0x74,0x61,0x74,0x65,0x66,0x75,0x6c,0x50,0x61,0x72,0x74,0x69,0x74,0x69,0x6f,0x6e,0x65,0x64,0x43,0x61,0x6c,0x6c,0x5f,0x31,0x3a,0x30,0x0,0x4,0x0,0x0,0x0,0x1,0x0,0x0,0x0,0x10,0x0,0x0,0x0,0x8,0x0,0x0,0x0,0xa,0x0,0x0,0x0,0x5a,0xfe,0xff,0xff,0x0,0x0,0x0,0x1,0x14,0x0,0x0,0x0,0xa0,0x0,0x0,0x0,0x3,0x0,0x0,0x0,0x0,0x0,0x0,0x9,0xac,0x0,0x0,0x0,0x44,0xfe,0xff,0xff,0x8,0x0,0x0,0x0,0x5c,0x0,0x0,0x0,0xa,0x0,0x0,0x0,0x0,0x0,0x0,0x0,0x0,0x0,0x0,0x0,0x0,0x0,0x0,0x0,0x0,0x0,0x0,0x0,0x0,0x0,0x0,0x0,0x0,0x0,0x0,0x0,0x0,0x0,0x0,0x0,0x0,0x0,0x0,0x0,0x0,0x0,0x0,0x0,0x0,0x0,0x0,0x0,0x0,0x0,0x0,0x0,0x0,0x0,0x0,0x0,0x0,0x0,0x0,0x0,0x0,0x0,0x0,0x0,0x0,0x0,0x0,0x0,0x0,0x0,0x0,0x0,0x0,0x0,0x0,0x0,0x0,0x0,0x0,0x0,0x0,0x0,0x0,0x0,0x0,0x0,0x0,0x0,0x0,0x0,0x0,0x0,0xa,0x0,0x0,0x0,0xb,0x43,0x68,0x3b,0xd,0xf2,0x71,0x3b,0x7b,0xde,0x73,0x3b,0x69,0xa1,0x69,0x3b,0x4c,0xf5,0x78,0x3b,0xaa,0x3e,0x7a,0x3b,0x28,0xaa,0x69,0x3b,0xfb,0xee,0x7a,0x3b,0xd5,0x32,0x79,0x3b,0x1b,0x44,0x43,0x3b,0x12,0x0,0x0,0x0,0x74,0x66,0x6c,0x2e,0x70,0x73,0x65,0x75,0x64,0x6f,0x5f,0x71,0x63,0x6f,0x6e,0x73,0x74,0x31,0x0,0x0,0x4,0x0,0x0,0x0,0xa,0x0,0x0,0x0,0x1,0x0,0x0,0x0,0x1,0x0,0x0,0x0,0xf,0x0,0x0,0x0,0x32,0xff,0xff,0xff,0x0,0x0,0x0,0x1,0x14,0x0,0x0,0x0,0xa0,0x0,0x0,0x0,0x2,0x0,0x0,0x0,0x0,0x0,0x0,0x2,0xac,0x0,0x0,0x0,0x1c,0xff,0xff,0xff,0x8,0x0,0x0,0x0,0x5c,0x0,0x0,0x0,0xa,0x0,0x0,0x0,0x0,0x0,0x0,0x0,0x0,0x0,0x0,0x0,0x0,0x0,0x0,0x0,0x0,0x0,0x0,0x0,0x0,0x0,0x0,0x0,0x0,0x0,0x0,0x0,0x0,0x0,0x0,0x0,0x0,0x0,0x0,0x0,0x0,0x0,0x0,0x0,0x0,0x0,0x0,0x0,0x0,0x0,0x0,0x0,0x0,0x0,0x0,0x0,0x0,0x0,0x0,0x0,0x0,0x0,0x0,0x0,0x0,0x0,0x0,0x0,0x0,0x0,0x0,0x0,0x0,0x0,0x0,0x0,0x0,0x0,0x0,0x0,0x0,0x0,0x0,0x0,0x0,0x0,0x0,0x0,0x0,0x0,0x0,0x0,0xa,0x0,0x0,0x0,0xd6,0x29,0x69,0x37,0x78,0xe2,0x72,0x37,0xcf,0xd0,0x74,0x37,0x91,0x89,0x6a,0x37,0xaf,0xec,0x79,0x37,0x54,0x37,0x7b,0x37,0x58,0x92,0x6a,0x37,0x54,0xe8,0x7b,0x37,0x75,0x2a,0x7a,0x37,0x23,0x6,0x44,0x37,0x11,0x0,0x0,0x0,0x74,0x66,0x6c,0x2e,0x70,0x73,0x65,0x75,0x64,0x6f,0x5f,0x71,0x63,0x6f,0x6e,0x73,0x74,0x0,0x0,0x0,0x1,0x0,0x0,0x0,0xa,0x0,0x0,0x0,0x0,0x0,0x16,0x0,0x1c,0x0,0x18,0x0,0x17,0x0,0x10,0x0,0xc,0x0,0x8,0x0,0x0,0x0,0x0,0x0,0x0,0x0,0x7,0x0,0x16,0x0,0x0,0x0,0x0,0x0,0x0,0x1,0x20,0x0,0x0,0x0,0x3c,0x0,0x0,0x0,0x1,0x0,0x0,0x0,0x0,0x0,0x0,0x9,0x58,0x0,0x0,0x0,0xc,0x0,0xc,0x0,0x0,0x0,0x0,0x0,0x8,0x0,0x4,0x0,0xc,0x0,0x0,0x0,0x8,0x0,0x0,0x0,0x10,0x0,0x0,0x0,0x1,0x0,0x0,0x0,0x80,0xff,0xff,0xff,0xff,0xff,0xff,0xff,0x1,0x0,0x0,0x0,0x31,0x7f,0x80,0x3b,0x23,0x0,0x0,0x0,0x73,0x65,0x72,0x76,0x69,0x6e,0x67,0x5f,0x64,0x65,0x66,0x61,0x75,0x6c,0x74,0x5f,0x6b,0x65,0x72,0x61,0x73,0x5f,0x74,0x65,0x6e,0x73,0x6f,0x72,0x5f,0x34,0x30,0x37,0x30,0x3a,0x30,0x0,0x4,0x0,0x0,0x0,0x1,0x0,0x0,0x0,0x10,0x0,0x0,0x0,0x8,0x0,0x0,0x0,0xf,0x0,0x0,0x0,0x1,0x0,0x0,0x0,0x10,0x0,0x0,0x0,0xc,0x0,0x10,0x0,0xf,0x0,0x0,0x0,0x8,0x0,0x4,0x0,0xc,0x0,0x0,0x0,0x3,0x0,0x0,0x0,0x3,0x0,0x0,0x0,0x0,0x0,0x0,0x3 
 };
unsigned int model_gen_len = 1696;